{
  "\u0013": 38413,
  "\u0014": 44842,
  "\u0018": 32521,
  "\u0019": 29338,
  "!": 37,
  "\"": 16,
  "#": 1816,
  "$": 379,
  "%": 183,
  "&": 553,
  "'": 8,
  "(": 40,
  ")": 39,
  "*": 282,
  "+": 2765,
  ",": 6,
  "-": 23,
  ".": 5,
  "/": 200,
  "0": 520,
  "00": 1966,
  "000": 324,
  "000@@": 26369,
  "001": 25161,
  "00@@": 4954,
  "00m": 24381,
  "01": 5474,
  "02": 6108,
  "03": 6490,
  "04": 6301,
  "05": 5772,
  "06": 6157,
  "07": 5757,
  "08": 5661,
  "09": 5641,
  "0@@": 1988,
  "0s": 11723,
  "0th": 11780,
  "1": 143,
  "10": 316,
  "100": 773,
  "1000": 6217,
  "100@@": 18432,
  "100th": 21147,
  "101": 8491,
  "102": 11472,
  "103": 12125,
  "104": 11842,
  "105": 10735,
  "106": 12534,
  "107": 13317,
  "108": 13741,
  "109": 14707,
  "10@@": 2575,
  "10s": 22731,
  "10th": 5915,
  "11": 619,
  "110": 8951,
  "1100": 26631,
  "111": 14445,
  "112": 14631,
  "113": 16394,
  "114": 16793,
  "115": 14422,
  "116": 17695,
  "117": 16945,
  "118": 17967,
  "119": 18553,
  "119@@": 22689,
  "11@@": 7941,
  "11th": 6316,
  "12": 497,
  "120": 6256,
  "1200": 16775,
  "120@@": 17763,
  "121": 17863,
  "122": 17463,
  "123": 17833,
  "124": 19017,
  "125": 10474,
  "126": 19495,
  "127": 18645,
  "128": 15761,
  "129": 20111,
  "12@@": 2615,
  "12th": 5499,
  "13": 721,
  "130": 9167,
  "1300": 24502,
  "131": 20332,
  "132": 19361,
  "133": 19391,
  "134": 21059,
  "135": 14384,
  "136": 20749,
  "137": 20788,
  "138": 20074,
  "139": 22360,
  "13@@": 2530,
  "13th": 5633,
  "14": 689,
  "140": 10682,
  "1400": 25632,
  "141": 21163,
  "142": 22102,
  "143": 21755,
  "144": 20118,
  "145": 18423,
  "146": 22379,
  "147": 21623,
  "148": 23483,
  "149": 24224,
  "14@@": 2302,
  "14th": 5944,
  "15": 547,
  "150": 4504,
  "1500": 11726,
  "151": 22521,
  "152": 20253,
  "153": 22539,
  "154": 21985,
  "155": 18781,
  "156": 22173,
  "157": 24177,
  "158": 24378,
  "159": 26927,
  "15@@": 1211,
  "15th": 5788,
  "16": 678,
  "160": 10455,
  "1600": 18055,
  "161": 24612,
  "162": 24202,
  "163": 24680,
  "164": 24898,
  "165": 18826,
  "166": 21258,
  "1660": 23850,
  "167": 22891,
  "168": 23594,
  "169": 26134,
  "16@@": 863,
  "16th": 5198,
  "17": 768,
  "170": 13523,
  "1700": 21123,
  "171": 24614,
  "172": 25126,
  "173": 25994,
  "174": 26576,
  "175": 15855,
  "1750": 24513,
  "176": 25558,
  "1760": 26433,
  "1763": 24966,
  "1768": 26862,
  "177": 25603,
  "1770": 23369,
  "1772": 23030,
  "1774": 23037,
  "1775": 19164,
  "1776": 17263,
  "1777": 21038,
  "1778": 21663,
  "1779": 23104,
  "178": 26983,
  "1780": 19529,
  "1781": 22433,
  "1782": 22426,
  "1783": 19949,
  "1784": 21983,
  "1785": 23291,
  "1786": 23887,
  "1787": 21555,
  "1788": 20608,
  "1789": 17689,
  "1790": 17113,
  "1791": 19314,
  "1792": 17362,
  "1793": 15863,
  "1794": 16679,
  "1795": 16831,
  "1796": 17661,
  "1797": 18256,
  "1798": 16714,
  "1799": 17862,
  "179@@": 28513,
  "17@@": 1032,
  "17th": 4923,
  "18": 552,
  "180": 9395,
  "1800": 11371,
  "1800s": 22591,
  "1801": 15801,
  "1802": 17476,
  "1803": 16049,
  "1804": 17083,
  "1805": 16886,
  "1806": 15698,
  "1807": 16845,
  "1808": 16510,
  "1809": 16232,
  "180@@": 28853,
  "181": 25674,
  "1810": 14884,
  "1811": 16730,
  "1812": 11274,
  "1813": 15268,
  "1814": 13477,
  "1815": 13173,
  "1816": 16046,
  "1817": 16709,
  "1818": 15591,
  "1819": 16221,
  "182": 23321,
  "1820": 13817,
  "1821": 14743,
  "1822": 16282,
  "1823": 16627,
  "1824": 14874,
  "1825": 14565,
  "1826": 15414,
  "1827": 16016,
  "1828": 14733,
  "1829": 14984,
  "183": 25968,
  "1830": 11503,
  "1830s": 23822,
  "1831": 13736,
  "1832": 12486,
  "1833": 14080,
  "1834": 13521,
  "1835": 12577,
  "1836": 12269,
  "1837": 11874,
  "1838": 12296,
  "1839": 12299,
  "184": 27146,
  "1840": 10606,
  "1840s": 22566,
  "1841": 12083,
  "1842": 12422,
  "1843": 12664,
  "1844": 12109,
  "1845": 11519,
  "1846": 11198,
  "1847": 11091,
  "1848": 9077,
  "1849": 10902,
  "184@@": 29636,
  "185": 19970,
  "1850": 9192,
  "1850s": 18965,
  "1851": 10395,
  "1852": 10674,
  "1853": 10834,
  "1854": 10057,
  "1855": 10138,
  "1856": 10337,
  "1857": 9705,
  "1858": 10215,
  "1859": 9759,
  "185@@": 29556,
  "186": 27043,
  "1860": 8353,
  "1860s": 18246,
  "1861": 7423,
  "1862": 7554,
  "1863": 7638,
  "1864": 7478,
  "1865": 7563,
  "1866": 8949,
  "1867": 8689,
  "1868": 8876,
  "1869": 9283,
  "186@@": 29767,
  "187": 24978,
  "1870": 7672,
  "1870s": 16811,
  "1871": 8533,
  "1872": 8778,
  "1873": 8989,
  "1874": 8916,
  "1875": 8787,
  "1876": 8499,
  "1877": 9071,
  "1878": 8570,
  "1879": 8800,
  "187@@": 29545,
  "188": 26548,
  "1880": 7665,
  "1880s": 13933,
  "1881": 8054,
  "1882": 8312,
  "1883": 8504,
  "1884": 8156,
  "1885": 7386,
  "1886": 7969,
  "1887": 7844,
  "1888": 7612,
  "1889": 7359,
  "188@@": 29596,
  "189": 26562,
  "1890": 6822,
  "1890s": 15162,
  "1891": 7611,
  "1892": 7394,
  "1893": 7373,
  "1894": 7472,
  "1895": 7060,
  "1896": 7051,
  "1897": 7213,
  "1898": 6695,
  "1899": 6900,
  "189@@": 29592,
  "18@@": 13694,
  "18th": 4176,
  "19": 925,
  "190": 15997,
  "1900": 5162,
  "1900s": 18906,
  "1901": 6279,
  "1902": 6237,
  "1903": 6300,
  "1904": 6164,
  "1905": 5777,
  "1906": 5853,
  "1907": 5929,
  "1908": 5604,
  "1909": 6012,
  "190@@": 28988,
  "1910": 4994,
  "1911": 5389,
  "1912": 4991,
  "1913": 5427,
  "1914": 4445,
  "1915": 5043,
  "1916": 5019,
  "1917": 4367,
  "1918": 4005,
  "1919": 4363,
  "192": 26751,
  "1920": 4254,
  "1920s": 6115,
  "1921": 4960,
  "1922": 4877,
  "1923": 5072,
  "1924": 4924,
  "1925": 5030,
  "1926": 5135,
  "1927": 4934,
  "1928": 4782,
  "1929": 4605,
  "1930": 4449,
  "1930s": 4938,
  "1931": 4958,
  "1932": 4855,
  "1933": 4562,
  "1934": 4685,
  "1935": 4522,
  "1936": 4250,
  "1937": 4337,
  "1938": 4163,
  "1939": 3502,
  "193@@": 29564,
  "1940": 3405,
  "1940s": 7520,
  "1941": 3383,
  "1942": 3296,
  "1943": 3469,
  "1944": 3079,
  "1945": 2543,
  "1946": 3522,
  "1947": 3634,
  "1948": 3461,
  "1949": 3869,
  "194@@": 29867,
  "195": 24837,
  "1950": 3598,
  "1950s": 3910,
  "1951": 4086,
  "1952": 3924,
  "1953": 3967,
  "1954": 3934,
  "1955": 3835,
  "1956": 3619,
  "1957": 3749,
  "1958": 3654,
  "1959": 3664,
  "195@@": 29902,
  "1960": 3221,
  "1960s": 2912,
  "1961": 3523,
  "1962": 3387,
  "1963": 3338,
  "1964": 3045,
  "1965": 3064,
  "1966": 3099,
  "1967": 2849,
  "1968": 2675,
  "1969": 2800,
  "196@@": 29778,
  "1970": 2626,
  "1970s": 2687,
  "1971": 2803,
  "1972": 2561,
  "1973": 2741,
  "1974": 2600,
  "1975": 2640,
  "1976": 2653,
  "1977": 2761,
  "1978": 2664,
  "1979": 2509,
  "197@@": 29816,
  "1980": 2345,
  "1980s": 2573,
  "1981": 2588,
  "1982": 2459,
  "1983": 2418,
  "1984": 2312,
  "1985": 2306,
  "1986": 2235,
  "1987": 2207,
  "1988": 2128,
  "1989": 2022,
  "198@@": 29506,
  "1990": 1861,
  "1990s": 2994,
  "1991": 1901,
  "1992": 1772,
  "1993": 1858,
  "1994": 1751,
  "1995": 1725,
  "1996": 1627,
  "1997": 1620,
  "1998": 1547,
  "1999": 1447,
  "199@@": 29456,
  "19@@": 5771,
  "19th": 2397,
  "1@@": 2388,
  "1a": 19942,
  "1s": 22905,
  "1st": 2091,
  "2": 176,
  "20": 465,
  "200": 1764,
  "2000": 985,
  "2000s": 9419,
  "2001": 1250,
  "2002": 1256,
  "2003": 1146,
  "2004": 989,
  "2005": 875,
  "2006": 730,
  "2007": 669,
  "2008": 627,
  "2009": 633,
  "200@@": 14996,
  "201": 22542,
  "2010": 545,
  "2011": 586,
  "2012": 616,
  "2013": 665,
  "2014": 680,
  "2015": 747,
  "2016": 845,
  "2017": 1145,
  "2018": 6249,
  "2019": 20991,
  "201@@": 25464,
  "202": 22512,
  "2020": 17230,
  "203": 26629,
  "205": 23347,
  "206": 25614,
  "208": 26768,
  "20@@": 4694,
  "20s": 14215,
  "20th": 2760,
  "21": 888,
  "210": 16953,
  "211": 25850,
  "212": 25086,
  "215": 24021,
  "21st": 7425,
  "22": 949,
  "220": 14186,
  "221": 27432,
  "222": 26992,
  "225": 20330,
  "22@@": 14292,
  "22nd": 16334,
  "23": 992,
  "230": 17889,
  "235": 25229,
  "23@@": 16117,
  "23rd": 15991,
  "24": 765,
  "240": 15757,
  "24@@": 15263,
  "24th": 15444,
  "25": 668,
  "250": 5144,
  "256": 24559,
  "25@@": 13267,
  "25th": 12177,
  "26": 1087,
  "260": 20272,
  "26@@": 17261,
  "26th": 17963,
  "27": 1090,
  "270": 19457,
  "275": 24115,
  "27@@": 17700,
  "27th": 17937,
  "28": 1088,
  "280": 19508,
  "28@@": 19909,
  "28th": 18813,
  "29": 1223,
  "290": 26775,
  "29@@": 18860,
  "29th": 19733,
  "2@@": 735,
  "2a": 25148,
  "2d": 14465,
  "2nd": 2514,
  "2s": 26414,
  "3": 216,
  "30": 561,
  "300": 2828,
  "3000": 12951,
  "301": 24688,
  "30@@": 4975,
  "30s": 20246,
  "30th": 15349,
  "31": 1379,
  "310": 26656,
  "31st": 21696,
  "32": 2154,
  "320": 18784,
  "32nd": 27044,
  "33": 2533,
  "330": 21347,
  "33@@": 21749,
  "33rd": 27356,
  "34": 2738,
  "340": 24060,
  "34@@": 24866,
  "34th": 26081,
  "35": 1975,
  "350": 9567,
  "35@@": 15671,
  "35th": 26178,
  "36": 2597,
  "360": 10441,
  "365": 25167,
  "36@@": 22248,
  "37": 2932,
  "370": 26356,
  "375": 25823,
  "37@@": 23257,
  "38": 2771,
  "380": 23302,
  "38@@": 24184,
  "39": 3287,
  "39@@": 25679,
  "3@@": 801,
  "3d": 7066,
  "3rd": 2896,
  "4": 260,
  "40": 1123,
  "400": 3344,
  "4000": 21956,
  "40@@": 5813,
  "40s": 22198,
  "40th": 19697,
  "41": 3201,
  "42": 2955,
  "420": 25432,
  "42nd": 26575,
  "43": 3466,
  "44": 2417,
  "440": 27306,
  "45": 1732,
  "450": 12352,
  "45@@": 19031,
  "46": 3529,
  "47": 3238,
  "47@@": 21381,
  "48": 2968,
  "480": 26089,
  "48@@": 27004,
  "49": 3441,
  "49@@": 27058,
  "49ers": 21572,
  "4@@": 827,
  "4th": 3252,
  "5": 253,
  "50": 959,
  "500": 1578,
  "5000": 14090,
  "501": 18737,
  "50@@": 6200,
  "50s": 20298,
  "50th": 14538,
  "51": 3480,
  "52": 3429,
  "53": 3870,
  "54": 3776,
  "55": 3075,
  "550": 18369,
  "55@@": 26849,
  "56": 4040,
  "57": 4058,
  "58": 4036,
  "59": 4087,
  "5@@": 948,
  "5th": 3462,
  "6": 345,
  "60": 1715,
  "600": 4651,
  "60@@": 18067,
  "60s": 15954,
  "60th": 26500,
  "61": 4271,
  "62": 4063,
  "63": 4578,
  "64": 2472,
  "65": 1841,
  "650": 17714,
  "66": 3944,
  "67": 4266,
  "68": 4630,
  "69": 4499,
  "6@@": 981,
  "6th": 3866,
  "7": 374,
  "70": 2274,
  "700": 6364,
  "70@@": 22282,
  "70s": 14067,
  "71": 4425,
  "72": 4225,
  "73": 4547,
  "74": 4843,
  "75": 2907,
  "750": 11620,
  "76": 4683,
  "76@@": 25759,
  "77": 4622,
  "78": 4672,
  "79": 5018,
  "7@@": 1110,
  "7th": 3938,
  "8": 420,
  "80": 2101,
  "800": 5064,
  "80@@": 15001,
  "80s": 12706,
  "81": 4831,
  "82": 4756,
  "83": 4965,
  "84": 4845,
  "85": 3841,
  "850": 21453,
  "86": 4398,
  "87": 4791,
  "88": 4427,
  "89": 4814,
  "8@@": 1151,
  "8th": 4270,
  "9": 475,
  "90": 2176,
  "900": 8755,
  "90@@": 22687,
  "90s": 15716,
  "91": 4883,
  "911": 14296,
  "92": 4537,
  "93": 4703,
  "94": 4789,
  "95": 3555,
  "96": 4392,
  "97": 4472,
  "98": 4320,
  "99": 3709,
  "9@@": 1204,
  "9th": 4364,
  ":": 106,
  ";": 118,
  "<": 1393,
  "=": 1381,
  ">": 1360,
  "?": 20,
  "@": 6708,
  "[": 1039,
  "\\": 16123,
  "]": 1030,
  "^": 21236,
  "_": 9627,
  "_@@": 12914,
  "__": 29291,
  "__@@": 29358,
  "____@@": 29940,
  "________@@": 28375,
  "__end@@": 49301,
  "__end__": 2,
  "__fp16_pad_0__": 54940,
  "__fp16_pad_1__": 54941,
  "__fp16_pad_2__": 54942,
  "__fp16_pad_3__": 54943,
  "__n@@": 32740,
  "__newln__": 4,
  "__null__": 0,
  "__silence__": 27,
  "__start__": 1,
  "__unk@@": 49302,
  "__unk__": 3,
  "`": 3580,
  "a": 12,
  "a1": 18162,
  "a2": 26630,
  "a@@": 337,
  "aa": 6487,
  "aa@@": 9982,
  "aaa": 15379,
  "aaaa@@": 28100,
  "aaf": 22897,
  "aah": 6362,
  "aan": 14348,
  "aar": 24477,
  "aar@@": 13260,
  "aaron": 6363,
  "ab": 5330,
  "ab@@": 666,
  "aba": 10281,
  "aback": 27382,
  "abad": 9272,
  "aban@@": 28258,
  "aband@@": 28391,
  "abandon": 8872,
  "abandon@@": 30576,
  "abandoned": 3269,
  "abandoning": 19877,
  "abandonment": 24869,
  "abbas": 21182,
  "abbey": 5523,
  "abbot": 12492,
  "abbott": 16214,
  "abbrevi@@": 21878,
  "abbreviated": 13273,
  "abby": 6472,
  "abc": 5526,
  "abd": 24728,
  "abdic@@": 25882,
  "abdomen": 14101,
  "abdomin@@": 30549,
  "abdominal": 23335,
  "abdu@@": 28445,
  "abducted": 17095,
  "abduction": 22316,
  "abdul": 11983,
  "abdull@@": 29178,
  "abdullah": 17825,
  "abe": 9542,
  "abe@@": 18115,
  "abel": 16337,
  "aber@@": 9269,
  "aberdeen": 13785,
  "abeth": 29401,
  "abi": 12319,
  "abi@@": 22828,
  "abig@@": 30674,
  "abigail": 15184,
  "abil@@": 23602,
  "abilities": 5847,
  "ability": 1667,
  "ablan@@": 30593,
  "ablanca": 26473,
  "able": 366,
  "abled": 30387,
  "ables": 11763,
  "abling": 29021,
  "ablo": 27642,
  "ably": 4022,
  "abnormal": 20190,
  "abo@@": 7034,
  "aboard": 5768,
  "abol@@": 20966,
  "abolished": 9939,
  "aboliti@@": 27186,
  "abolition": 18747,
  "aboo": 23636,
  "abor@@": 14121,
  "aboriginal": 11239,
  "abortion": 10815,
  "about": 72,
  "above": 909,
  "abra@@": 15788,
  "abraham": 8199,
  "abroad": 5969,
  "abrup@@": 30189,
  "abrupt": 19954,
  "abruptly": 8586,
  "abs": 10806,
  "abs@@": 27654,
  "absence": 5511,
  "absent": 9918,
  "absently": 22676,
  "absolu@@": 28150,
  "absolute": 6507,
  "absolutely": 2559,
  "absor@@": 23956,
  "absorb": 16859,
  "absorbed": 8769,
  "absorbing": 23098,
  "absorption": 18150,
  "abstr@@": 18020,
  "abstract": 10785,
  "absur@@": 27542,
  "absurd": 13579,
  "abu": 8359,
  "abu@@": 10341,
  "abund@@": 28779,
  "abundance": 15563,
  "abundant": 14151,
  "abuse": 5848,
  "abused": 15872,
  "abuses": 23403,
  "abusive": 21450,
  "aby": 23279,
  "aby@@": 22904,
  "abyss": 23427,
  "ac": 2757,
  "ac@@": 850,
  "aca": 10915,
  "acad@@": 28735,
  "academ@@": 18516,
  "academia": 21838,
  "academic": 2772,
  "academics": 17066,
  "academies": 25839,
  "academy": 1454,
  "acadi@@": 25992,
  "acadé@@": 25409,
  "acc": 17764,
  "acc@@": 7101,
  "acca": 23057,
  "acceler@@": 19012,
  "accelerate": 25461,
  "accelerated": 15464,
  "acceleration": 18556,
  "accelerator": 24920,
  "accent": 8034,
  "accep@@": 28162,
  "accept": 2666,
  "acceptable": 11280,
  "acceptance": 9817,
  "accepted": 2401,
  "accepting": 9834,
  "accepts": 13811,
  "acces@@": 30375,
  "access": 1593,
  "accessed": 14259,
  "accessible": 7374,
  "accession": 20849,
  "accessor@@": 30288,
  "accessories": 18613,
  "accessory": 24644,
  "accid@@": 29462,
  "accident": 2404,
  "accidental": 17228,
  "accidentally": 8229,
  "accidents": 12360,
  "acclaim": 11261,
  "acclaimed": 10768,
  "accol@@": 24103,
  "accommo@@": 13535,
  "accommodate": 8587,
  "accommodation": 12342,
  "accomp@@": 30897,
  "accompan@@": 29359,
  "accompanied": 4676,
  "accompanim@@": 26327,
  "accompany": 11411,
  "accompanying": 11524,
  "accompl@@": 28348,
  "accompli@@": 28577,
  "accomplice": 23766,
  "accomplish": 13274,
  "accomplished": 7988,
  "accomplishment": 26611,
  "accomplishments": 20055,
  "accor@@": 14012,
  "accord": 16458,
  "accordance": 11352,
  "according": 625,
  "accordingly": 12280,
  "accoun@@": 23952,
  "account": 2315,
  "accountability": 21425,
  "accountable": 26839,
  "accountant": 16004,
  "accounted": 13626,
  "accounting": 9768,
  "accounts": 4914,
  "accred@@": 29224,
  "accreditation": 18041,
  "accredited": 12520,
  "accu@@": 10456,
  "accumulated": 16367,
  "accumulation": 23995,
  "accur@@": 28549,
  "accuracy": 10930,
  "accurate": 6654,
  "accurately": 14593,
  "accus@@": 29424,
  "accusation": 18687,
  "accusations": 13113,
  "accuse": 20295,
  "accused": 4214,
  "accusing": 14574,
  "accustom@@": 33698,
  "accustomed": 16144,
  "ace": 4733,
  "aceae": 10962,
  "acer@@": 28849,
  "aces": 15106,
  "acet@@": 11435,
  "ach": 3651,
  "ach@@": 2283,
  "acha": 22420,
  "acha@@": 15742,
  "achable": 25570,
  "acharya": 26808,
  "ache": 6523,
  "ached": 9323,
  "acher": 24007,
  "acheron": 22028,
  "achers": 18436,
  "aches": 8516,
  "achi": 10912,
  "achi@@": 8924,
  "achiev@@": 26856,
  "achieve": 5133,
  "achieved": 3632,
  "achievement": 6951,
  "achievements": 11000,
  "achieving": 11417,
  "achilles": 24836,
  "achim": 30002,
  "aching": 8155,
  "achment": 26166,
  "achments": 22786,
  "acht": 16514,
  "achu@@": 27913,
  "aci@@": 11418,
  "acia": 19029,
  "acid": 4748,
  "acidi@@": 24797,
  "acids": 13899,
  "acies": 17085,
  "acio": 20099,
  "acional": 28676,
  "acious": 20095,
  "acity": 21895,
  "ación": 16993,
  "ack": 5950,
  "ack@@": 6227,
  "acked": 14233,
  "acker": 18564,
  "ackers": 27924,
  "acking": 14019,
  "acknowle@@": 15584,
  "acknowledge": 12252,
  "acknowledged": 8484,
  "acknowledging": 24213,
  "acks": 11051,
  "acle": 13779,
  "acles": 16043,
  "aco": 12207,
  "aco@@": 17146,
  "acon": 28764,
  "acon@@": 20184,
  "acons": 27347,
  "acou@@": 25095,
  "acoustic": 9070,
  "acp": 22795,
  "acqu@@": 18370,
  "acqua@@": 29695,
  "acquaint@@": 27560,
  "acquaintance": 16603,
  "acquainted": 16919,
  "acqui@@": 24753,
  "acquire": 9780,
  "acquired": 2516,
  "acquiring": 15044,
  "acquis@@": 30817,
  "acquisition": 7855,
  "acquisitions": 22647,
  "acquitted": 20775,
  "acre": 10044,
  "acres": 6867,
  "acro@@": 19202,
  "acron@@": 29633,
  "acronym": 23049,
  "across": 530,
  "acs": 13268,
  "act": 695,
  "act@@": 5596,
  "acted": 4338,
  "acters": 32400,
  "acti@@": 20862,
  "actic": 26058,
  "acting": 1846,
  "action": 1119,
  "actions": 2872,
  "activ@@": 15504,
  "activate": 15372,
  "activated": 7548,
  "activation": 12485,
  "active": 1564,
  "actively": 8313,
  "activi@@": 31925,
  "activism": 20048,
  "activist": 7864,
  "activists": 10557,
  "activities": 2018,
  "activity": 2491,
  "actly": 28242,
  "actor": 2147,
  "actors": 4655,
  "actress": 3248,
  "actresses": 21206,
  "acts": 2940,
  "actu@@": 18018,
  "actual": 3454,
  "actually": 612,
  "actus": 28981,
  "acu@@": 14543,
  "acular": 30044,
  "acus": 24707,
  "acute": 11660,
  "acy": 7397,
  "ad": 1395,
  "ad@@": 789,
  "ada": 2978,
  "adam": 2470,
  "adam@@": 12713,
  "adams": 5710,
  "adap@@": 11511,
  "adapt": 15786,
  "adaptation": 7249,
  "adaptations": 20467,
  "adapted": 6105,
  "adaptive": 23050,
  "adas": 26035,
  "add": 3790,
  "added": 1130,
  "adder": 28390,
  "addic@@": 17498,
  "addict": 20315,
  "addicted": 20760,
  "addiction": 13246,
  "adding": 4747,
  "addison": 19352,
  "additi@@": 24503,
  "addition": 1154,
  "additional": 1912,
  "additionally": 5065,
  "additions": 15158,
  "address": 2618,
  "addressed": 7720,
  "addresses": 11777,
  "addressing": 13592,
  "adds": 9757,
  "addy": 18137,
  "ade": 3370,
  "ade@@": 9285,
  "aded": 8645,
  "adel": 28617,
  "adel@@": 11452,
  "adelaide": 7983,
  "adele": 18676,
  "aden": 12465,
  "aden@@": 22373,
  "adena": 29959,
  "adequ@@": 28771,
  "adequate": 12194,
  "adequately": 24834,
  "ader": 13475,
  "aders": 28657,
  "ades": 4551,
  "adhe@@": 20667,
  "adher@@": 12585,
  "adi": 9068,
  "adi@@": 5483,
  "adic": 22159,
  "adin": 22004,
  "ading": 9629,
  "adjac@@": 30304,
  "adjacent": 4950,
  "adjoining": 15010,
  "adju@@": 20139,
  "adjunct": 26056,
  "adjust": 12759,
  "adjust@@": 27781,
  "adjusted": 9880,
  "adjusting": 19405,
  "adjustment": 20365,
  "adjustments": 25544,
  "adjutant": 25048,
  "adler": 21087,
  "adm@@": 27637,
  "admi@@": 23210,
  "admini@@": 21471,
  "administer": 22871,
  "administered": 8690,
  "administr@@": 16097,
  "administration": 2090,
  "administrative": 3498,
  "administrator": 9675,
  "administrators": 17942,
  "admir@@": 15543,
  "admiral": 5060,
  "admiralty": 16551,
  "admiration": 17539,
  "admire": 13282,
  "admired": 12103,
  "admiring": 23450,
  "admission": 9324,
  "admissions": 22660,
  "admit": 3540,
  "admits": 14591,
  "admitted": 3536,
  "admitting": 17279,
  "ado": 5104,
  "ado@@": 16190,
  "adobe": 22919,
  "adol@@": 9548,
  "adolescent": 22750,
  "adolf": 14147,
  "adop@@": 15257,
  "adopt": 10478,
  "adopted": 2943,
  "adopting": 17511,
  "adoption": 9446,
  "ador": 14539,
  "ador@@": 11025,
  "adorable": 15036,
  "adore": 22716,
  "adored": 26337,
  "adores": 22517,
  "adorned": 19835,
  "ados": 25235,
  "adox": 32766,
  "adren@@": 27217,
  "adrenaline": 13636,
  "adri@@": 7248,
  "adrian": 7509,
  "ads": 5949,
  "adu": 27147,
  "adul@@": 16728,
  "adult": 3397,
  "adulthood": 23298,
  "adults": 5182,
  "adv@@": 16823,
  "advanc@@": 28727,
  "advance": 3808,
  "advanced": 2701,
  "advancement": 15081,
  "advances": 11590,
  "advancing": 11126,
  "advant@@": 19465,
  "advantage": 3420,
  "advantages": 11210,
  "advent": 15443,
  "advent@@": 25495,
  "adventi@@": 26320,
  "adventur@@": 21829,
  "adventure": 5351,
  "adventures": 7710,
  "adver@@": 18411,
  "adverse": 17610,
  "adverti@@": 16203,
  "advertised": 18932,
  "advertisement": 16774,
  "advertisements": 16231,
  "advertising": 5724,
  "advice": 3786,
  "advis@@": 18811,
  "advise": 13795,
  "advised": 8671,
  "adviser": 13141,
  "advising": 26519,
  "advisor": 8720,
  "advisors": 21250,
  "advisory": 8363,
  "advoc@@": 30542,
  "advocacy": 14289,
  "advocate": 8257,
  "advocated": 12709,
  "advocates": 14678,
  "advocating": 23693,
  "ady": 16688,
  "ae": 4391,
  "ae@@": 8523,
  "aeg@@": 26493,
  "ael": 26997,
  "aer@@": 8718,
  "aerial": 10126,
  "aero": 24663,
  "aero@@": 8164,
  "aeronau@@": 18584,
  "aerospace": 16491,
  "aest@@": 29457,
  "aesth@@": 28915,
  "aesthetic": 14316,
  "aesthetics": 25897,
  "af": 7384,
  "af@@": 2768,
  "afar": 19097,
  "afb": 26141,
  "afc": 13240,
  "aff": 25730,
  "aff@@": 5932,
  "affair": 4852,
  "affairs": 2824,
  "affe": 30207,
  "affect": 6387,
  "affected": 4010,
  "affecting": 13002,
  "affection": 10799,
  "affection@@": 18869,
  "affects": 13380,
  "affili@@": 27933,
  "affiliate": 9099,
  "affiliated": 6872,
  "affiliates": 21244,
  "affiliation": 14299,
  "affinity": 19494,
  "affir@@": 15663,
  "affirmative": 22839,
  "affirmed": 18229,
  "afflic@@": 21029,
  "afflu@@": 29697,
  "affluent": 25411,
  "affor@@": 28553,
  "afford": 5213,
  "afford@@": 29621,
  "affordable": 16887,
  "afforded": 25588,
  "afgh@@": 28686,
  "afghan": 13628,
  "afghan@@": 31255,
  "afghanistan": 6589,
  "afi": 17913,
  "afl": 10454,
  "afore@@": 29818,
  "aforementioned": 20464,
  "afraid": 1264,
  "afri@@": 19451,
  "afric@@": 27846,
  "africa": 1678,
  "african": 1575,
  "africans": 20254,
  "afro": 21209,
  "aft": 12678,
  "after": 91,
  "after@@": 11930,
  "afterlife": 25441,
  "aftermath": 11021,
  "afternoon": 2464,
  "afternoons": 27080,
  "afterward": 9266,
  "afterwards": 4380,
  "ag": 7434,
  "ag@@": 936,
  "aga": 8513,
  "aga@@": 8726,
  "again": 164,
  "against": 188,
  "agan": 14891,
  "agar": 15339,
  "agara": 29108,
  "agas@@": 30202,
  "agatha": 25702,
  "agawa": 25066,
  "age": 346,
  "aged": 2477,
  "agen": 25734,
  "agencies": 6367,
  "agency": 2652,
  "agenda": 10669,
  "agent": 1823,
  "agents": 4409,
  "ager": 20196,
  "agers": 28742,
  "ages": 2566,
  "ageway": 20545,
  "aggrav@@": 27893,
  "aggravated": 26989,
  "aggre@@": 12154,
  "aggregate": 9900,
  "aggression": 14998,
  "aggressive": 7977,
  "aggressively": 26485,
  "agh": 11064,
  "agh@@": 16350,
  "aghan": 23628,
  "agher": 30241,
  "agi": 15293,
  "aging": 6388,
  "agitated": 20436,
  "agitation": 24514,
  "agnes": 11772,
  "agno@@": 25706,
  "ago": 741,
  "ago@@": 12236,
  "agon": 23731,
  "agon@@": 15560,
  "agonist": 29125,
  "agonists": 28040,
  "agony": 11806,
  "agr@@": 21100,
  "agra": 24570,
  "agram": 20869,
  "agre@@": 21487,
  "agree": 2831,
  "agreed": 1676,
  "agreeing": 15354,
  "agreement": 2319,
  "agreements": 11359,
  "agrees": 8757,
  "agri@@": 26892,
  "agricul@@": 29039,
  "agricultural": 4168,
  "agriculture": 4805,
  "agu@@": 6328,
  "agua": 27516,
  "aguil@@": 24521,
  "ah": 648,
  "ah@@": 3947,
  "aha": 12659,
  "aha@@": 17027,
  "ahan": 24811,
  "ahead": 1321,
  "ahem": 19966,
  "ahh": 11175,
  "ahi": 24787,
  "ahl": 19849,
  "ahmad": 13930,
  "ahmed": 12136,
  "aho": 28673,
  "ahs": 24436,
  "ahu": 20033,
  "ahu@@": 21812,
  "ai": 2395,
  "ai@@": 3113,
  "aiah": 29347,
  "aid": 3061,
  "aidan": 11774,
  "aide": 15467,
  "aided": 11681,
  "aiden": 14153,
  "aiding": 26273,
  "aids": 7784,
  "aii": 15111,
  "ail": 15541,
  "ail@@": 13147,
  "aim": 5205,
  "aim@@": 16682,
  "aimed": 5709,
  "aiming": 13276,
  "aims": 8934,
  "ain": 1305,
  "ain@@": 10732,
  "aina": 26419,
  "aine": 14205,
  "ains": 29533,
  "air": 364,
  "air@@": 2556,
  "airborne": 10837,
  "airbus": 26889,
  "aircraft": 1421,
  "aire": 9146,
  "aired": 3951,
  "aires": 8326,
  "airfield": 10289,
  "airing": 10545,
  "airline": 8237,
  "airlines": 7819,
  "airplane": 12184,
  "airplanes": 24592,
  "airplay": 18023,
  "airport": 1758,
  "airports": 14781,
  "airs": 16245,
  "airways": 15585,
  "ais": 7275,
  "ais@@": 10525,
  "aise": 20499,
  "aisle": 11272,
  "aissance": 33585,
  "ait@@": 25355,
  "aj": 7865,
  "aj@@": 6213,
  "aja": 16233,
  "ajax": 21130,
  "ak": 2684,
  "ak@@": 1494,
  "aka": 5739,
  "aka@@": 23503,
  "akan": 25524,
  "akbar": 24163,
  "ake": 13667,
  "aked": 14183,
  "aker": 18621,
  "akers": 19924,
  "akh": 17131,
  "akh@@": 18486,
  "aki": 5593,
  "aki@@": 13549,
  "akin": 14052,
  "aking": 14135,
  "ako": 19251,
  "aks": 13726,
  "aku": 23832,
  "aku@@": 23569,
  "al": 381,
  "al@@": 347,
  "ala": 3782,
  "ala@@": 17506,
  "alab@@": 22234,
  "alabama": 5319,
  "alain": 21113,
  "alam": 20530,
  "alam@@": 16798,
  "alan": 3546,
  "alan@@": 20550,
  "aland": 16725,
  "alarm": 6061,
  "alarmed": 18597,
  "alarms": 26126,
  "alas": 21540,
  "alas@@": 22191,
  "alaska": 7346,
  "alb@@": 17592,
  "alba": 23097,
  "alban@@": 20780,
  "albania": 12300,
  "albanian": 11190,
  "albany": 11325,
  "albe@@": 27182,
  "albeit": 12949,
  "alber@@": 16680,
  "albert": 3973,
  "alberta": 8067,
  "alberto": 15117,
  "albi@@": 28609,
  "albion": 15841,
  "albu@@": 27940,
  "album": 362,
  "albums": 2952,
  "albuquerque": 22840,
  "alco@@": 11026,
  "alcoho@@": 39823,
  "alcohol": 4906,
  "alcoholic": 13291,
  "ald": 13362,
  "alde@@": 22607,
  "alder@@": 16360,
  "alderman": 23016,
  "aldo": 12786,
  "ale": 2593,
  "ale@@": 11533,
  "alec": 8699,
  "aled": 15077,
  "alej@@": 29742,
  "alejandro": 22915,
  "alek@@": 22271,
  "aleksand@@": 24102,
  "aleppo": 27062,
  "aler@@": 16956,
  "alert": 6753,
  "alerted": 22060,
  "ales": 7339,
  "aless@@": 28660,
  "alessandro": 25669,
  "alex": 2202,
  "alex@@": 12032,
  "alexand@@": 17958,
  "alexander": 2696,
  "alexandra": 11957,
  "alexandre": 24035,
  "alexandria": 11248,
  "alexei": 24508,
  "alexia": 23144,
  "alexis": 13410,
  "alf": 18166,
  "alfon@@": 29123,
  "alfonso": 16237,
  "alfred": 6097,
  "alfredo": 24366,
  "algae": 21580,
  "alge@@": 27503,
  "algebra": 11954,
  "algebra@@": 30063,
  "algebraic": 21918,
  "alger@@": 28636,
  "algeria": 14594,
  "algerian": 22274,
  "algor@@": 31056,
  "algorith@@": 29421,
  "algorithm": 10348,
  "algorithms": 16405,
  "ali": 2557,
  "ali@@": 2058,
  "alia": 6756,
  "alian": 22186,
  "alias": 16056,
  "alibi": 16242,
  "alice": 4131,
  "alicia": 13707,
  "alid": 29567,
  "alie": 14619,
  "alien": 5492,
  "alien@@": 17307,
  "aliens": 10032,
  "alig@@": 28076,
  "align": 7684,
  "aligned": 13133,
  "alignment": 13140,
  "alike": 9165,
  "aline": 23561,
  "aling": 7424,
  "alis": 11072,
  "alisation": 13709,
  "alise": 15929,
  "alised": 8463,
  "alising": 18585,
  "alism": 4210,
  "alison": 11994,
  "alist": 5164,
  "alistair": 24543,
  "alistic": 9868,
  "alists": 7222,
  "alities": 13631,
  "ality": 3644,
  "alive": 1420,
  "alization": 4917,
  "alize": 7460,
  "alized": 4134,
  "alizes": 27848,
  "alizing": 11764,
  "alk": 24439,
  "alk@@": 23902,
  "all": 55,
  "all@@": 1995,
  "alla": 15880,
  "allah": 14446,
  "allan": 9820,
  "alle": 16513,
  "alle@@": 19514,
  "alled": 12920,
  "alleg@@": 11372,
  "allegations": 10143,
  "alleged": 6396,
  "allegedly": 9465,
  "allegh@@": 29837,
  "allegheny": 25527,
  "allegi@@": 29264,
  "allegiance": 14992,
  "allen": 4697,
  "aller@@": 21335,
  "allergic": 18259,
  "allevi@@": 28645,
  "alleviate": 27207,
  "alley": 6978,
  "alli": 20855,
  "alli@@": 10175,
  "alliance": 3639,
  "alliances": 22791,
  "allie": 14315,
  "allied": 5258,
  "allies": 6043,
  "allig@@": 21903,
  "alling": 16837,
  "allion": 30239,
  "allison": 9910,
  "allmusic": 14681,
  "allo": 27253,
  "allo@@": 21168,
  "alloc@@": 23305,
  "allocated": 11712,
  "allocation": 19287,
  "allot@@": 18471,
  "allow": 1614,
  "allow@@": 23116,
  "allowance": 21387,
  "alloway": 25685,
  "allowed": 1233,
  "allowing": 3092,
  "allows": 3073,
  "alloy": 19641,
  "alls": 15903,
  "allu@@": 11461,
  "ally": 2054,
  "alma": 12180,
  "almighty": 20979,
  "almost": 504,
  "alo": 13746,
  "alo@@": 5545,
  "alog": 25319,
  "alogue": 30717,
  "alon@@": 25617,
  "alone": 639,
  "along": 331,
  "along@@": 29007,
  "alongside": 2875,
  "alonso": 20617,
  "alore": 30006,
  "aloud": 12220,
  "alous": 20203,
  "alph@@": 19479,
  "alpha": 5603,
  "alpha@@": 17585,
  "alphabet": 13508,
  "alpine": 11640,
  "alps": 16194,
  "already": 417,
  "alright": 2801,
  "als": 1435,
  "als@@": 25041,
  "also": 98,
  "alt": 12078,
  "alt@@": 10724,
  "alta": 19887,
  "alta@@": 27007,
  "altar": 8868,
  "alter": 10893,
  "alter@@": 9870,
  "alterations": 19989,
  "altered": 8187,
  "altering": 20442,
  "altern@@": 27063,
  "alternate": 7533,
  "alternating": 17246,
  "alternative": 3482,
  "alternatively": 16517,
  "alternatives": 18068,
  "although": 480,
  "alties": 15463,
  "altitude": 8244,
  "altitudes": 26341,
  "alto": 13927,
  "altogether": 9562,
  "alty": 21913,
  "alu@@": 8379,
  "alum@@": 28576,
  "alumin@@": 29999,
  "aluminium": 16854,
  "aluminum": 13898,
  "alumni": 10718,
  "alumnus": 25475,
  "alus": 26274,
  "alvin": 19019,
  "always": 300,
  "aly": 11855,
  "aly@@": 9498,
  "alz@@": 29259,
  "alzheimer": 24088,
  "am": 195,
  "am@@": 570,
  "ama": 3312,
  "ama@@": 15060,
  "amal@@": 21788,
  "amalgam@@": 29283,
  "amalgamated": 21320,
  "amalgamation": 26514,
  "aman": 10432,
  "amanda": 6403,
  "amar": 20236,
  "amar@@": 11347,
  "amassed": 24762,
  "amat@@": 16219,
  "amateur": 4973,
  "amateurs": 25124,
  "amaz@@": 11230,
  "amazed": 13519,
  "amazement": 22865,
  "amazing": 2665,
  "amazon": 10592,
  "amb@@": 18554,
  "ambas@@": 30307,
  "ambassad@@": 29863,
  "ambassador": 5398,
  "ambassadors": 23802,
  "amber": 7457,
  "ambi@@": 14757,
  "ambient": 20632,
  "ambigu@@": 22265,
  "ambiguous": 20220,
  "ambique": 31510,
  "ambition": 14580,
  "ambitions": 19882,
  "ambitious": 11629,
  "ambro@@": 22449,
  "ambrose": 16990,
  "ambu@@": 17944,
  "ambul@@": 30211,
  "ambulance": 7780,
  "ambush": 13918,
  "ambushed": 21520,
  "amc": 26321,
  "ame": 8744,
  "amed": 11891,
  "amelia": 10973,
  "amen": 10129,
  "amen@@": 28033,
  "amend@@": 29846,
  "amended": 14945,
  "amendment": 7328,
  "amendments": 19285,
  "amenities": 23511,
  "ament": 14219,
  "aments": 22197,
  "amer": 26793,
  "amer@@": 8652,
  "americ@@": 22860,
  "america": 941,
  "american": 241,
  "americana": 24794,
  "americans": 3359,
  "americas": 12911,
  "ames": 12260,
  "amher@@": 30890,
  "amherst": 25220,
  "ami": 5539,
  "ami@@": 12138,
  "amid": 14016,
  "amid@@": 28332,
  "amidst": 18531,
  "amin": 22281,
  "amine": 12057,
  "aming": 20215,
  "amino": 14627,
  "amir": 19375,
  "ammo": 22645,
  "ammunition": 8833,
  "amne@@": 29310,
  "amnesia": 25993,
  "amnesty": 18101,
  "amo": 10712,
  "amo@@": 8829,
  "amon": 25635,
  "among": 630,
  "among@@": 31286,
  "amongst": 4819,
  "amor": 27129,
  "amor@@": 22014,
  "amorous": 22921,
  "amos": 12344,
  "amoto": 16323,
  "amount": 2156,
  "amounted": 21612,
  "amounts": 7706,
  "amp": 9114,
  "amp@@": 7851,
  "amped": 25382,
  "amph@@": 21627,
  "amphi@@": 12864,
  "amphibious": 18599,
  "ampl@@": 29644,
  "ample": 21399,
  "ampli@@": 13192,
  "amplifier": 26232,
  "amplitude": 27375,
  "ampton": 26596,
  "ampu@@": 26236,
  "ams": 8290,
  "amster@@": 30676,
  "amsterdam": 8297,
  "amtrak": 24117,
  "amu@@": 19818,
  "amulet": 24390,
  "amus@@": 31106,
  "amused": 10961,
  "amusement": 9104,
  "amusing": 15962,
  "amy": 3647,
  "amy@@": 24776,
  "amé@@": 20939,
  "an": 50,
  "an@@": 380,
  "ana": 1352,
  "ana@@": 11112,
  "anah@@": 30405,
  "anaheim": 26163,
  "anal": 18467,
  "analo@@": 27907,
  "analog": 13675,
  "analogous": 23565,
  "analogue": 27338,
  "analogy": 25623,
  "analy@@": 11551,
  "analyses": 20058,
  "analysis": 2979,
  "analyst": 13455,
  "analysts": 19903,
  "analytic": 23864,
  "analytical": 21106,
  "analyze": 17625,
  "analyzed": 17275,
  "analyzing": 21348,
  "anand": 22304,
  "ananda": 27116,
  "anarch@@": 18684,
  "anarchist": 20327,
  "anas": 18005,
  "anasta@@": 28634,
  "anastasia": 23808,
  "anat@@": 23419,
  "anatoli@@": 20940,
  "anatom@@": 22994,
  "anatomy": 14611,
  "anc@@": 7836,
  "anca": 15579,
  "ance": 2826,
  "anced": 23470,
  "ances": 5352,
  "ancest@@": 29921,
  "ancestor": 14095,
  "ancestors": 9668,
  "ancestral": 16548,
  "ancestry": 11875,
  "anch@@": 13633,
  "anche": 27132,
  "anchor": 8133,
  "anchor@@": 28999,
  "anchorage": 25128,
  "anchored": 15461,
  "anci@@": 16181,
  "ancient": 1830,
  "ancies": 23581,
  "ancing": 28459,
  "anco": 21619,
  "ancy": 7006,
  "and": 9,
  "and@@": 2063,
  "anda": 6455,
  "andalu@@": 24892,
  "andan": 21942,
  "ander": 7551,
  "ander@@": 12217,
  "anders": 10703,
  "andersen": 25754,
  "anderson": 4637,
  "andes": 19209,
  "andhra": 17415,
  "andi": 15911,
  "ando": 19714,
  "andra": 15896,
  "andre": 11977,
  "andre@@": 13685,
  "andrea": 9174,
  "andreas": 16785,
  "andrei": 24061,
  "andrew": 3016,
  "andrews": 9865,
  "andro": 28269,
  "andro@@": 13946,
  "android": 13349,
  "andré": 12524,
  "andy": 4144,
  "ane": 4152,
  "anec@@": 22246,
  "aned": 24211,
  "aneous": 25354,
  "anes": 23839,
  "anese": 24178,
  "anesthe@@": 25663,
  "aney": 28631,
  "ang": 2730,
  "ang@@": 1924,
  "anga": 10145,
  "ange": 25748,
  "anged": 24256,
  "angel": 3295,
  "angel@@": 9355,
  "angela": 8632,
  "angeles": 1997,
  "angelica": 22145,
  "angelina": 25190,
  "angelo": 9917,
  "angels": 6228,
  "anger": 2560,
  "angered": 20077,
  "angie": 12264,
  "angl@@": 27640,
  "angle": 4952,
  "angled": 13224,
  "angles": 10067,
  "anglican": 10208,
  "anglo": 7760,
  "ango": 20100,
  "angola": 18056,
  "angri@@": 30283,
  "angrily": 14323,
  "angry": 2281,
  "angs": 23639,
  "angu@@": 14286,
  "anguish": 21869,
  "angular": 18331,
  "angus": 14968,
  "ani": 3485,
  "ani@@": 7331,
  "ania": 7357,
  "anian": 16505,
  "anians": 24531,
  "anic": 18080,
  "anim@@": 8596,
  "animal": 2346,
  "animals": 2381,
  "animated": 6488,
  "animation": 7926,
  "anime": 9908,
  "aning": 28254,
  "anism": 11744,
  "anita": 11699,
  "anium": 29464,
  "ank": 26568,
  "ank@@": 17329,
  "anka": 22832,
  "ankara": 23856,
  "ankle": 9336,
  "ankles": 14505,
  "ann": 3922,
  "ann@@": 4181,
  "anna": 2280,
  "anna@@": 24112,
  "annabelle": 24829,
  "annals": 24380,
  "anne": 2795,
  "anne@@": 28614,
  "annette": 26286,
  "annex": 21719,
  "annex@@": 28399,
  "annexation": 21958,
  "annexed": 15032,
  "anni": 20324,
  "anni@@": 16733,
  "annie": 5425,
  "annihil@@": 18573,
  "anniversary": 4508,
  "anno@@": 14127,
  "announc@@": 22456,
  "announce": 12799,
  "announced": 942,
  "announcement": 7861,
  "announcer": 17190,
  "announces": 21197,
  "announcing": 14374,
  "annoy@@": 29363,
  "annoyance": 18171,
  "annoyed": 10390,
  "annoying": 10691,
  "annu@@": 16898,
  "annual": 1951,
  "annually": 6346,
  "ano": 2310,
  "ano@@": 7091,
  "anom@@": 20758,
  "anomaly": 26429,
  "anony@@": 20189,
  "anonymous": 9732,
  "anoo@@": 26107,
  "anos": 24949,
  "another": 210,
  "anova": 20470,
  "ans": 1293,
  "ans@@": 5391,
  "ansa": 24459,
  "anship": 25918,
  "answ@@": 28983,
  "answer": 1075,
  "answered": 2814,
  "answering": 8070,
  "answers": 4606,
  "ant": 1106,
  "ant@@": 2382,
  "anta": 13398,
  "antagon@@": 23867,
  "antagonist": 23423,
  "antan@@": 15702,
  "antarc@@": 30713,
  "antarctic": 18484,
  "antarctica": 20166,
  "ante": 7695,
  "ante@@": 23463,
  "anten@@": 17891,
  "antenna": 14322,
  "anter@@": 27956,
  "anterior": 18496,
  "antes": 13462,
  "anth@@": 10054,
  "antha": 28003,
  "anthem": 13994,
  "antho@@": 23401,
  "anthology": 12752,
  "anthony": 4414,
  "anthro@@": 24685,
  "anthropo@@": 19168,
  "anthropologist": 25442,
  "anthropology": 15178,
  "anti": 1718,
  "anti@@": 2725,
  "antibio@@": 28118,
  "antibiotics": 22885,
  "antibodies": 25175,
  "antic": 29420,
  "antic@@": 20151,
  "anticip@@": 16501,
  "anticipated": 10859,
  "anticipation": 10756,
  "antics": 19349,
  "antidote": 24120,
  "antine": 28143,
  "antioch": 23530,
  "antiqu@@": 18979,
  "antique": 14029,
  "antiquities": 25575,
  "antiquity": 19569,
  "antly": 7024,
  "anto": 21071,
  "anto@@": 23637,
  "antoine": 14011,
  "anton": 10083,
  "anton@@": 9353,
  "antonio": 4826,
  "antony": 19961,
  "antry": 26893,
  "ants": 4582,
  "antwerp": 17042,
  "anu": 16050,
  "anu@@": 11391,
  "anus": 10245,
  "anut": 30320,
  "anuts": 32741,
  "anxi@@": 29574,
  "anxiety": 9127,
  "anxious": 9033,
  "anxiously": 24589,
  "any": 147,
  "any@@": 5543,
  "anya": 11181,
  "anybody": 2510,
  "anyhow": 19161,
  "anymore": 1440,
  "anyone": 726,
  "anything": 254,
  "anytime": 9867,
  "anyway": 1199,
  "anyways": 19452,
  "anywhere": 2637,
  "anz@@": 13893,
  "anza": 17877,
  "ao": 4822,
  "ao@@": 14443,
  "ap": 4776,
  "ap@@": 1137,
  "apa": 13306,
  "apache": 18651,
  "apart": 2217,
  "apart@@": 29623,
  "aparte": 30920,
  "apartheid": 21005,
  "apartment": 2193,
  "apartments": 10071,
  "ape": 10030,
  "apeake": 34003,
  "aper@@": 27672,
  "aperture": 23724,
  "apes": 16998,
  "apex": 17030,
  "aph": 21457,
  "aph@@": 13964,
  "aphra@@": 24297,
  "api": 18709,
  "api@@": 24677,
  "apo": 27618,
  "apo@@": 5984,
  "apocaly@@": 27641,
  "apocalypse": 18232,
  "apolis": 26384,
  "apoll@@": 21682,
  "apollo": 8944,
  "apolo@@": 27319,
  "apolog@@": 20895,
  "apologi@@": 27992,
  "apologies": 15608,
  "apologise": 21793,
  "apologize": 5550,
  "apologized": 16847,
  "apologizing": 25765,
  "apology": 9255,
  "apor@@": 26179,
  "apostle": 25280,
  "apostles": 23071,
  "apostolic": 16047,
  "app": 9948,
  "app@@": 4264,
  "appa": 17086,
  "appal@@": 29683,
  "appalachi@@": 28975,
  "appalachian": 23712,
  "appar@@": 15745,
  "apparatus": 16968,
  "apparent": 6161,
  "apparently": 2421,
  "appe@@": 24967,
  "appeal": 4540,
  "appealed": 12650,
  "appealing": 15483,
  "appeals": 9396,
  "appear": 2076,
  "appear@@": 30671,
  "appearance": 1822,
  "appearances": 2916,
  "appeared": 856,
  "appearing": 5155,
  "appears": 2053,
  "apped": 12510,
  "appell@@": 17845,
  "append@@": 15499,
  "apper": 15023,
  "appers": 22747,
  "appet@@": 28860,
  "appetite": 14946,
  "apping": 10481,
  "appl@@": 9639,
  "applause": 16508,
  "apple": 4758,
  "apples": 15410,
  "appli@@": 28212,
  "appliances": 25320,
  "applic@@": 23568,
  "applicable": 18546,
  "applicants": 19336,
  "application": 3745,
  "applications": 4507,
  "applied": 3018,
  "applies": 12638,
  "apply": 5434,
  "applying": 11386,
  "appoin@@": 25004,
  "appoint": 17525,
  "appoint@@": 30171,
  "appointed": 1231,
  "appointing": 27876,
  "appointment": 4331,
  "appointments": 13710,
  "appreci@@": 16635,
  "appreciate": 4074,
  "appreciated": 11032,
  "appreciation": 12386,
  "apprehen@@": 27860,
  "apprehension": 27249,
  "apprent@@": 22499,
  "apprentice": 13415,
  "apprentice@@": 30023,
  "apprenticeship": 22818,
  "appro@@": 13770,
  "approach": 2441,
  "approached": 4082,
  "approaches": 7916,
  "approaching": 6957,
  "appropri@@": 12473,
  "appropriate": 5323,
  "appropriately": 22115,
  "approval": 5298,
  "approve": 10665,
  "approved": 3685,
  "approving": 25453,
  "approxim@@": 27468,
  "approximate": 19817,
  "approximately": 1779,
  "approximation": 24263,
  "apps": 22459,
  "appy": 19208,
  "april": 516,
  "apron": 19784,
  "aps": 9181,
  "apse": 24551,
  "apu@@": 27108,
  "apul@@": 28517,
  "apuram": 25861,
  "apy": 27420,
  "aq": 26928,
  "aq@@": 22058,
  "aqu@@": 5532,
  "aqua": 26953,
  "aquarium": 20798,
  "aquatic": 15804,
  "aque": 24538,
  "aqueduc@@": 24783,
  "aqui@@": 26732,
  "ar": 907,
  "ar@@": 350,
  "ara": 2553,
  "ara@@": 12848,
  "arab": 4746,
  "arab@@": 19213,
  "arabia": 9851,
  "arabian": 15738,
  "arabic": 6855,
  "arabs": 14798,
  "aragon": 22494,
  "aram": 17970,
  "aram@@": 22452,
  "aran": 21545,
  "arat": 26243,
  "arbit@@": 27630,
  "arbitr@@": 27790,
  "arbitrary": 17706,
  "arbitration": 21929,
  "arbo@@": 21846,
  "arbor": 24017,
  "arc": 7673,
  "arc@@": 9052,
  "arca@@": 20923,
  "arcade": 11960,
  "arch": 7005,
  "arch@@": 5128,
  "archa@@": 21215,
  "archae@@": 29436,
  "archaeo@@": 29478,
  "archaeological": 8006,
  "archaeologist": 21949,
  "archaeologists": 21716,
  "archaeology": 14769,
  "archaic": 22383,
  "archbishop": 6843,
  "archdiocese": 16110,
  "arche@@": 20722,
  "arched": 8790,
  "archer": 10066,
  "archers": 24770,
  "archery": 25616,
  "arches": 14829,
  "archi@@": 12013,
  "archibald": 19979,
  "archie": 12495,
  "arching": 23457,
  "archipel@@": 30432,
  "archipelago": 16722,
  "archit@@": 29244,
  "architec@@": 26294,
  "architect": 4132,
  "architects": 8711,
  "architectural": 6416,
  "architecture": 3449,
  "archive": 11199,
  "archives": 9155,
  "archy": 20766,
  "arctic": 10749,
  "ard": 1428,
  "ard@@": 12608,
  "arded": 30160,
  "ardi": 22819,
  "ardi@@": 28964,
  "arding": 22032,
  "ardo": 22019,
  "ards": 6397,
  "ardy": 29612,
  "are": 46,
  "are@@": 5972,
  "area": 285,
  "areas": 1102,
  "ared": 17284,
  "arek": 22577,
  "aren": 1301,
  "arena": 4594,
  "ares": 10116,
  "aret": 28668,
  "areth": 27922,
  "arez": 27752,
  "arg@@": 24400,
  "argent@@": 19371,
  "argentina": 5938,
  "argentine": 9736,
  "argh": 25854,
  "argon@@": 27291,
  "argu@@": 16836,
  "arguably": 17340,
  "argue": 5489,
  "argued": 4209,
  "argues": 9380,
  "arguing": 7586,
  "argument": 5185,
  "arguments": 9518,
  "argy@@": 26242,
  "ari": 3582,
  "ari@@": 2179,
  "aria": 4473,
  "arian": 6481,
  "arianism": 25466,
  "arians": 8555,
  "arias": 23237,
  "arid": 19211,
  "arie": 15949,
  "ariel": 16380,
  "aries": 5160,
  "arily": 19310,
  "arina": 18342,
  "arine": 20879,
  "aring": 15238,
  "ario": 11131,
  "arios": 28830,
  "arious": 27657,
  "aris": 13288,
  "arise": 13699,
  "arises": 21416,
  "arising": 21190,
  "arist": 27719,
  "aristo@@": 28378,
  "aristoc@@": 22023,
  "aristocracy": 24861,
  "aristocratic": 21832,
  "aristotle": 19852,
  "arith@@": 27769,
  "arithmetic": 23582,
  "arity": 25982,
  "arium": 13756,
  "arius": 17074,
  "arizona": 4702,
  "arjun": 26618,
  "ark": 9704,
  "ark@@": 15260,
  "arkansas": 6528,
  "arlington": 16470,
  "arm": 918,
  "arm@@": 6414,
  "arma@@": 12286,
  "armament": 14258,
  "armand": 24788,
  "armed": 2644,
  "armen@@": 29580,
  "armenia": 12275,
  "armenian": 8340,
  "armenians": 23374,
  "armi@@": 28447,
  "armies": 8093,
  "arming": 17778,
  "armistice": 21732,
  "armor": 7159,
  "armor@@": 28787,
  "armored": 11019,
  "armory": 25447,
  "armour": 12804,
  "armoured": 11612,
  "arms": 727,
  "armstrong": 9740,
  "army": 555,
  "arn@@": 15068,
  "arnold": 8030,
  "aro": 9642,
  "aro@@": 4531,
  "arom@@": 19755,
  "aroma": 24858,
  "aroo": 28085,
  "arose": 10095,
  "around": 145,
  "arousal": 20103,
  "aroused": 18417,
  "arov": 23475,
  "arra@@": 26902,
  "arran@@": 16765,
  "arrang@@": 32742,
  "arrange": 8970,
  "arranged": 4004,
  "arrangement": 5906,
  "arrangements": 7375,
  "arranging": 17595,
  "array": 8370,
  "arre@@": 25085,
  "arrest": 3558,
  "arrested": 2836,
  "arresting": 22438,
  "arrests": 17299,
  "arri@@": 9413,
  "arrival": 4354,
  "arrive": 5167,
  "arrived": 1510,
  "arrives": 7188,
  "arriving": 6009,
  "arro@@": 26157,
  "arrog@@": 29844,
  "arrogance": 22471,
  "arrogant": 13044,
  "arrow": 7617,
  "arrows": 12203,
  "ars": 3377,
  "arse": 20043,
  "arsen@@": 18830,
  "arsenal": 9436,
  "arson": 22196,
  "art": 628,
  "art@@": 2249,
  "arta": 25940,
  "arte": 16285,
  "artem@@": 29270,
  "artemis": 20484,
  "artery": 17128,
  "arth": 24495,
  "arth@@": 28491,
  "arthritis": 27413,
  "arthro@@": 24839,
  "arthur": 3195,
  "arthy": 28876,
  "arti@@": 16861,
  "article": 2396,
  "articles": 3955,
  "articul@@": 17698,
  "articulated": 24413,
  "artie": 22307,
  "artifact": 20372,
  "artifacts": 10787,
  "artificial": 7632,
  "artillery": 4322,
  "artime": 32767,
  "artis@@": 20397,
  "artist": 1590,
  "artistic": 5468,
  "artists": 1931,
  "arton": 23852,
  "arts": 1283,
  "arturo": 26496,
  "artwork": 9605,
  "aru": 22833,
  "aru@@": 22020,
  "arun@@": 25267,
  "ary": 2767,
  "arya": 25741,
  "aryan": 25241,
  "as": 29,
  "as@@": 732,
  "asa": 10423,
  "asan": 20644,
  "asar@@": 27372,
  "asc@@": 13019,
  "ascen@@": 29827,
  "ascended": 21642,
  "ascending": 26526,
  "ascension": 21613,
  "ascent": 20826,
  "asco": 18099,
  "ascri@@": 26313,
  "ascular": 26495,
  "ase": 6727,
  "ased": 17804,
  "ases": 12508,
  "ash": 3412,
  "ash@@": 2827,
  "asha": 20404,
  "ashamed": 8028,
  "ashe": 12380,
  "ashed": 25440,
  "asher": 17943,
  "ashes": 9589,
  "ashi": 14940,
  "ashley": 8157,
  "ashore": 15553,
  "ashton": 15548,
  "ashtra": 29789,
  "asi": 13097,
  "asi@@": 7690,
  "asia": 2739,
  "asian": 2791,
  "aside": 3241,
  "asis": 15056,
  "ask": 575,
  "asked": 288,
  "asking": 1722,
  "asks": 3107,
  "asleep": 3844,
  "asm": 27703,
  "asp@@": 13134,
  "aspect": 7687,
  "aspects": 5359,
  "aspen": 20825,
  "asper@@": 27963,
  "asph@@": 30113,
  "asphalt": 19165,
  "aspir@@": 22251,
  "aspirations": 25637,
  "aspirin": 25960,
  "aspiring": 25328,
  "ass": 1254,
  "ass@@": 10599,
  "assail@@": 23307,
  "assam": 19262,
  "assassin": 10925,
  "assassin@@": 28063,
  "assassinate": 25553,
  "assassinated": 17888,
  "assassination": 9737,
  "assassins": 17765,
  "assaul@@": 27858,
  "assault": 4590,
  "assaulted": 16002,
  "assaults": 24548,
  "asse@@": 20638,
  "assed": 20840,
  "assem@@": 19757,
  "assembl@@": 25678,
  "assemble": 19950,
  "assembled": 8451,
  "assemblies": 21279,
  "assembly": 2060,
  "asser@@": 12145,
  "assert": 23534,
  "asserted": 14935,
  "asserts": 22741,
  "asses": 13673,
  "assess": 15364,
  "assessed": 15595,
  "assessing": 23388,
  "assessment": 7699,
  "assessments": 24904,
  "asset": 11041,
  "assets": 6498,
  "assh@@": 29642,
  "asshole": 6348,
  "assholes": 21415,
  "assi": 25977,
  "assi@@": 13336,
  "assic": 28344,
  "assie": 24515,
  "assign": 24398,
  "assign@@": 30666,
  "assigned": 2797,
  "assignment": 7262,
  "assignments": 15242,
  "assimil@@": 15732,
  "assin": 29309,
  "assin@@": 28846,
  "assing": 15918,
  "assist": 5635,
  "assist@@": 30230,
  "assistance": 4441,
  "assistant": 2023,
  "assistants": 17922,
  "assisted": 6837,
  "assisting": 15350,
  "assists": 9128,
  "assium": 38414,
  "assment": 33015,
  "asso": 28774,
  "associ@@": 21952,
  "associate": 4771,
  "associated": 1956,
  "associates": 8791,
  "association": 974,
  "associations": 9610,
  "assu@@": 18210,
  "assume": 5152,
  "assumed": 3737,
  "assumes": 17901,
  "assuming": 8153,
  "assumption": 11475,
  "assumptions": 19166,
  "assurance": 18559,
  "assure": 9423,
  "assured": 7556,
  "assyrian": 24023,
  "ast": 7308,
  "ast@@": 4399,
  "asted": 18003,
  "aster": 14275,
  "aster@@": 15370,
  "asteroid": 13704,
  "asters": 23124,
  "asthma": 24979,
  "astic": 28492,
  "astically": 30716,
  "asting": 15704,
  "asto@@": 18867,
  "aston": 14508,
  "aston@@": 30245,
  "astoni@@": 29403,
  "astonished": 23308,
  "astonishing": 25225,
  "astonishment": 25808,
  "astr@@": 12251,
  "astri@@": 28077,
  "astrid": 27052,
  "astro@@": 10428,
  "astronau@@": 29608,
  "astronaut": 20538,
  "astronauts": 26196,
  "astronom@@": 26164,
  "astronomer": 18885,
  "astronomical": 16240,
  "astronomy": 14587,
  "asts": 15224,
  "astu@@": 19066,
  "asy": 27927,
  "asy@@": 26717,
  "asyl@@": 29765,
  "asylum": 11183,
  "asymm@@": 21451,
  "at": 32,
  "at@@": 607,
  "ata": 2594,
  "atal": 24247,
  "atar": 28608,
  "atari": 19428,
  "ate": 595,
  "ate@@": 27867,
  "ated": 781,
  "atedly": 27707,
  "ately": 7224,
  "ater": 6533,
  "ater@@": 18220,
  "ateral": 27573,
  "aters": 12513,
  "ates": 1175,
  "ath": 3304,
  "ath@@": 5221,
  "atha": 22333,
  "athan": 22543,
  "athe@@": 21084,
  "athed": 24686,
  "atheist": 25974,
  "athen@@": 17078,
  "athena": 23150,
  "athens": 7901,
  "ather@@": 26484,
  "athic": 17022,
  "athing": 24058,
  "athle@@": 29052,
  "athlete": 8624,
  "athletes": 7486,
  "athletic": 4431,
  "athletics": 6641,
  "athlon": 20037,
  "aths": 23584,
  "athy": 15597,
  "ati": 5896,
  "ati@@": 3124,
  "atic": 3994,
  "atically": 21503,
  "atics": 11701,
  "atile": 32022,
  "atin": 22163,
  "ating": 961,
  "atio": 19566,
  "ation": 704,
  "ation@@": 13572,
  "ational": 4527,
  "ationist": 22989,
  "ations": 1559,
  "atism": 20946,
  "atist": 19953,
  "ative": 2541,
  "atively": 10684,
  "atives": 11474,
  "ativity": 28501,
  "atkinson": 24156,
  "atlan@@": 22201,
  "atlanta": 5453,
  "atlantic": 3354,
  "atlantis": 17914,
  "atlas": 13617,
  "atlé@@": 31006,
  "atlético": 23479,
  "atm": 27005,
  "atmo@@": 28782,
  "atmosphere": 6081,
  "atmospheric": 13920,
  "ato": 7014,
  "ato@@": 6783,
  "atoes": 33780,
  "atoll": 27284,
  "atom": 14360,
  "atom@@": 24451,
  "atomic": 9085,
  "atoms": 13624,
  "aton": 11023,
  "atop": 10051,
  "ator": 2007,
  "atore": 29061,
  "atorial": 15384,
  "atories": 28878,
  "atorium": 22734,
  "ators": 3726,
  "atory": 7120,
  "atown": 29801,
  "atp": 14993,
  "atra": 28167,
  "atri@@": 20900,
  "atro@@": 11759,
  "atrocities": 25778,
  "ats": 3410,
  "atsu": 27102,
  "att": 11197,
  "att@@": 3192,
  "atta": 10158,
  "attac@@": 29316,
  "attach": 21900,
  "attached": 3800,
  "attachment": 15533,
  "attack": 982,
  "attacked": 2595,
  "attacker": 17749,
  "attackers": 19207,
  "attacking": 6610,
  "attacks": 3078,
  "attain": 20688,
  "attain@@": 26960,
  "attained": 13847,
  "atte": 25969,
  "attemp@@": 32178,
  "attempt": 1905,
  "attempted": 3385,
  "attempting": 6340,
  "attempts": 3550,
  "attend": 4067,
  "attend@@": 20572,
  "attendance": 7890,
  "attendant": 17562,
  "attended": 1635,
  "attendees": 23915,
  "attending": 6091,
  "attention": 1142,
  "attered": 25007,
  "atters": 21346,
  "attested": 21739,
  "atti": 20779,
  "attic": 13812,
  "attire": 21402,
  "attitude": 5676,
  "attitudes": 15439,
  "attle": 28280,
  "atton": 23759,
  "attor@@": 29427,
  "attorney": 3430,
  "attorneys": 17155,
  "attrac@@": 28751,
  "attract": 9224,
  "attracted": 5061,
  "attracting": 16483,
  "attraction": 7943,
  "attractions": 14758,
  "attractive": 6333,
  "attracts": 19317,
  "attribu@@": 20497,
  "attribute": 21188,
  "attributed": 6944,
  "attributes": 13647,
  "atty": 17516,
  "atu": 23532,
  "atu@@": 17505,
  "ature": 15041,
  "atures": 22518,
  "atus": 12964,
  "au": 3794,
  "au@@": 1237,
  "aubrey": 22024,
  "auburn": 13580,
  "auc@@": 14168,
  "auck@@": 31488,
  "auckland": 10062,
  "auction": 9947,
  "aud": 16857,
  "aud@@": 13996,
  "audi": 22627,
  "audi@@": 14819,
  "audible": 19215,
  "audience": 2956,
  "audiences": 9603,
  "audio": 5657,
  "audit": 18881,
  "audit@@": 26679,
  "auditi@@": 28493,
  "audition": 11400,
  "auditioned": 24727,
  "auditions": 21321,
  "auditor": 26314,
  "auditorium": 12561,
  "audrey": 11614,
  "aug": 27213,
  "aug@@": 21870,
  "augh@@": 16957,
  "aught": 22510,
  "aughter": 30182,
  "augmented": 22882,
  "augu@@": 12056,
  "august": 509,
  "august@@": 25699,
  "augusta": 16031,
  "augustine": 16685,
  "augustus": 13145,
  "aul@@": 14276,
  "ault": 13058,
  "aume": 22680,
  "aun@@": 18754,
  "aunt": 3322,
  "auntie": 16954,
  "aur": 15271,
  "aur@@": 10541,
  "aura": 14830,
  "aureli@@": 22922,
  "aurora": 14833,
  "aus": 14228,
  "ause": 28191,
  "auspices": 24087,
  "aust": 30032,
  "austen": 27137,
  "austin": 5390,
  "austr@@": 27496,
  "austral@@": 24275,
  "australi@@": 30221,
  "australia": 1086,
  "australian": 1351,
  "australians": 17490,
  "austri@@": 27732,
  "austria": 4933,
  "austrian": 6262,
  "austro": 19766,
  "aut": 22061,
  "auth@@": 27609,
  "authent@@": 22504,
  "authentic": 14242,
  "authenticity": 24371,
  "author": 1932,
  "author@@": 8565,
  "authored": 9840,
  "authorised": 19098,
  "authorities": 3373,
  "authority": 2206,
  "authorization": 19498,
  "authorized": 8887,
  "authors": 5698,
  "autism": 22957,
  "auto": 7727,
  "auto@@": 6276,
  "autobiographical": 22421,
  "autobiography": 12899,
  "autograph": 23722,
  "autom@@": 16303,
  "automated": 14608,
  "automatic": 6216,
  "automatically": 7707,
  "automation": 25162,
  "automo@@": 30766,
  "automob@@": 30401,
  "automobile": 9997,
  "automobiles": 21836,
  "automotive": 15167,
  "auton@@": 29941,
  "autonom@@": 28116,
  "autonomous": 9211,
  "autonomy": 13977,
  "autop@@": 27176,
  "autopsy": 16606,
  "autum@@": 29804,
  "autumn": 6734,
  "aux": 16234,
  "aux@@": 24724,
  "auxili@@": 28910,
  "auxiliary": 11497,
  "av": 10946,
  "av@@": 2032,
  "ava": 7494,
  "ava@@": 20832,
  "avail": 25975,
  "avail@@": 31256,
  "availability": 11700,
  "available": 1159,
  "aval@@": 27653,
  "avalanche": 21237,
  "avalon": 21920,
  "avan": 28478,
  "avan@@": 27331,
  "avant": 17226,
  "avatar": 21102,
  "ave": 11413,
  "ave@@": 22718,
  "aven@@": 27832,
  "aveng@@": 22670,
  "avenge": 19001,
  "avengers": 15961,
  "avenue": 2690,
  "avenues": 24124,
  "aver@@": 9788,
  "average": 1072,
  "averaged": 12436,
  "averages": 22783,
  "averaging": 16892,
  "avery": 11141,
  "aves": 28396,
  "avi": 19698,
  "avi@@": 6920,
  "avia": 17744,
  "avian": 21423,
  "aviation": 5765,
  "avid": 20649,
  "aviv": 15886,
  "avo@@": 17493,
  "avoi@@": 33192,
  "avoid": 2793,
  "avoid@@": 19584,
  "avoided": 8895,
  "avoiding": 8771,
  "avon": 16331,
  "aw": 4640,
  "aw@@": 4248,
  "awa": 9582,
  "awa@@": 11007,
  "await": 23033,
  "awaited": 20474,
  "awaiting": 15371,
  "awaits": 27089,
  "awak@@": 28177,
  "awake": 5582,
  "awakened": 19628,
  "awakening": 19333,
  "awan": 26820,
  "awar@@": 20734,
  "award": 917,
  "awarded": 1738,
  "awarding": 26017,
  "awards": 1702,
  "aware": 3129,
  "awareness": 6749,
  "away": 184,
  "awe": 14203,
  "awesome": 5183,
  "awful": 4893,
  "awfully": 16163,
  "awhile": 15695,
  "awi": 27861,
  "awk@@": 28435,
  "awkward": 7164,
  "awkwardly": 19943,
  "awned": 33449,
  "awning": 19007,
  "awoke": 19506,
  "aww": 26860,
  "ax": 6064,
  "ax@@": 6459,
  "axe": 11739,
  "axel": 20888,
  "axes": 18894,
  "axi@@": 18989,
  "axial": 24196,
  "axis": 8139,
  "axle": 19647,
  "ay": 2178,
  "ay@@": 1752,
  "aya": 4772,
  "ayan": 9233,
  "ayana": 22239,
  "ayas": 22742,
  "aye": 4786,
  "ayed": 26524,
  "ayer": 19033,
  "aying": 17866,
  "ayo": 22784,
  "ays": 10959,
  "az": 9060,
  "az@@": 1957,
  "aza": 27849,
  "azar": 22204,
  "azer@@": 29811,
  "azerbai@@": 25578,
  "azerbaijan": 12190,
  "azi": 23890,
  "azi@@": 24868,
  "aziz": 25336,
  "azzo": 28891,
  "aç@@": 23306,
  "b": 354,
  "b@@": 372,
  "ba": 1479,
  "ba@@": 1047,
  "bab": 26024,
  "bab@@": 5527,
  "baba": 14271,
  "babe": 6402,
  "babies": 6941,
  "babu": 26738,
  "baby": 708,
  "baby@@": 12423,
  "babylon": 19014,
  "babylon@@": 24090,
  "bac@@": 6253,
  "bach": 5157,
  "bach@@": 13853,
  "bachel@@": 24593,
  "bachelor": 4226,
  "back": 90,
  "back@@": 3834,
  "backbone": 22878,
  "backdrop": 21488,
  "backed": 4970,
  "backer": 28606,
  "background": 3369,
  "backgrounds": 17251,
  "backing": 7030,
  "backpack": 11749,
  "backs": 5150,
  "backseat": 19214,
  "backside": 24568,
  "backstage": 19521,
  "backup": 7742,
  "backward": 8162,
  "backwards": 9107,
  "backyard": 13914,
  "bacon": 9923,
  "bacter@@": 20299,
  "bacteria": 10217,
  "bacterial": 18509,
  "bad": 482,
  "bad@@": 5313,
  "badass": 25305,
  "bade": 22974,
  "baden": 13326,
  "badge": 9239,
  "badger": 25038,
  "badges": 23943,
  "badly": 4483,
  "badminton": 20839,
  "bae": 23641,
  "baf@@": 23993,
  "bag": 1739,
  "bag@@": 4730,
  "bage": 28943,
  "baggage": 18787,
  "bagh@@": 27967,
  "baghdad": 15843,
  "bago": 28611,
  "bags": 5227,
  "bah": 15228,
  "bah@@": 11270,
  "baha@@": 20098,
  "bahamas": 20687,
  "bahn": 11888,
  "bahrain": 19845,
  "bahá": 16624,
  "bai": 18138,
  "bai@@": 15578,
  "bail": 10350,
  "bail@@": 26370,
  "bailey": 8514,
  "baili@@": 26918,
  "bain": 21685,
  "baird": 25820,
  "bait": 12371,
  "baj@@": 23227,
  "baja": 24216,
  "bak@@": 11393,
  "bake": 21704,
  "baked": 15380,
  "baker": 5615,
  "baker@@": 24764,
  "bakery": 17805,
  "baking": 20529,
  "baku": 21382,
  "bal": 7957,
  "bal@@": 1787,
  "bala": 19394,
  "balance": 4073,
  "balanced": 10621,
  "balancing": 21614,
  "balcon@@": 28243,
  "balcony": 10411,
  "bald": 10573,
  "bald@@": 28562,
  "baldwin": 12028,
  "bali": 19445,
  "balkan": 21536,
  "balkans": 23278,
  "ball": 1270,
  "ball@@": 4301,
  "ballad": 13774,
  "ballads": 23258,
  "ballard": 25630,
  "balled": 26695,
  "ballet": 7037,
  "ballistic": 21582,
  "balloon": 12216,
  "balloons": 20110,
  "ballot": 11263,
  "ballots": 17609,
  "ballroom": 15045,
  "balls": 3791,
  "bally": 25403,
  "bally@@": 19922,
  "balt": 26710,
  "balth@@": 29126,
  "balthazar": 26329,
  "balti@@": 29364,
  "baltic": 12503,
  "baltimore": 5773,
  "balu@@": 25205,
  "bam": 17341,
  "bam@@": 10527,
  "bamboo": 16901,
  "ban": 3930,
  "ban@@": 2143,
  "bana": 24026,
  "banana": 12913,
  "bananas": 22305,
  "band": 451,
  "band@@": 5380,
  "bandage": 22080,
  "bandages": 25089,
  "banded": 27839,
  "bandit": 22435,
  "bandits": 17416,
  "bands": 3832,
  "bandwidth": 24351,
  "bane": 17214,
  "bang": 6183,
  "bang@@": 12523,
  "bangalore": 16480,
  "banged": 19695,
  "banging": 16493,
  "bangkok": 16100,
  "bangla@@": 27571,
  "bangladesh": 7899,
  "bangor": 27380,
  "bangs": 27325,
  "bani": 27143,
  "banished": 20505,
  "banjo": 25315,
  "bank": 1049,
  "bank@@": 16101,
  "banker": 13557,
  "bankers": 26345,
  "banking": 8202,
  "bankrup@@": 29566,
  "bankrupt": 17134,
  "bankrupt@@": 30452,
  "bankruptcy": 11024,
  "banks": 3618,
  "banned": 7497,
  "banner": 9695,
  "banners": 25928,
  "banning": 24089,
  "banquet": 19011,
  "bant@@": 21712,
  "bao": 17178,
  "bap@@": 27694,
  "bapti@@": 13598,
  "baptism": 20426,
  "baptist": 7850,
  "baptiste": 21830,
  "baptized": 20573,
  "bar": 1171,
  "bar@@": 998,
  "bara": 17206,
  "barack": 15577,
  "barak": 21300,
  "barang@@": 22519,
  "barb": 24318,
  "barb@@": 17116,
  "barbad@@": 31005,
  "barbados": 21912,
  "barbar@@": 22533,
  "barbara": 6202,
  "barbarian": 26939,
  "barbec@@": 29102,
  "barbecue": 19634,
  "barbed": 26843,
  "barber": 14253,
  "barber@@": 22437,
  "barbie": 19773,
  "barcel@@": 29707,
  "barcelona": 8467,
  "bard": 11636,
  "bare": 4892,
  "bare@@": 28599,
  "bared": 24812,
  "barefoot": 23853,
  "barely": 2483,
  "bargain": 13048,
  "bargaining": 23034,
  "barge": 18090,
  "bari": 18132,
  "baritone": 24208,
  "bark": 9869,
  "barked": 16629,
  "barker": 14944,
  "barking": 17607,
  "barley": 24441,
  "barlow": 22108,
  "barn": 7061,
  "barn@@": 9858,
  "barnab@@": 24386,
  "barnes": 10608,
  "barnett": 24601,
  "barney": 12298,
  "baro@@": 20047,
  "baron": 5320,
  "baron@@": 27596,
  "baroness": 24330,
  "baronet": 12418,
  "baronet@@": 23377,
  "barons": 25177,
  "barony": 24681,
  "baroque": 12212,
  "barr": 23360,
  "barracks": 10447,
  "barrage": 21571,
  "barre@@": 25541,
  "barred": 15729,
  "barrel": 7429,
  "barrels": 16225,
  "barren": 20820,
  "barrett": 13954,
  "barri@@": 24326,
  "barric@@": 18260,
  "barrier": 8204,
  "barriers": 14666,
  "barrister": 22473,
  "barrow": 16236,
  "barry": 5325,
  "bars": 5052,
  "bart": 9625,
  "bart@@": 6605,
  "bartender": 14056,
  "barthol@@": 30150,
  "bartholom@@": 30168,
  "bartholomew": 23680,
  "bartlett": 24353,
  "barton": 12482,
  "bas": 16141,
  "bas@@": 3213,
  "basal": 18994,
  "base": 1165,
  "base@@": 27973,
  "baseball": 2273,
  "based": 396,
  "basel": 17667,
  "baseman": 21620,
  "basement": 5999,
  "bases": 7287,
  "bash": 19478,
  "bash@@": 18022,
  "basic": 2934,
  "basically": 6805,
  "basics": 24004,
  "basil": 16386,
  "basil@@": 27786,
  "basilica": 16133,
  "basin": 5961,
  "basins": 27409,
  "basis": 2669,
  "basket": 8510,
  "basket@@": 29082,
  "basketball": 2177,
  "baskets": 26614,
  "basque": 16523,
  "bass": 3607,
  "bassist": 10351,
  "bast@@": 17375,
  "bastar@@": 29626,
  "bastard": 3720,
  "bastards": 10726,
  "basti@@": 23409,
  "bastian": 28757,
  "bat": 5131,
  "bat@@": 3313,
  "batch": 13509,
  "bate": 22213,
  "bates": 11901,
  "bath": 4943,
  "bath@@": 13727,
  "bathe": 26776,
  "bathed": 24276,
  "bathing": 15147,
  "bathro@@": 21266,
  "bathroom": 3177,
  "baths": 19707,
  "bathtub": 24573,
  "bati@@": 18666,
  "batman": 8889,
  "baton": 16418,
  "bats": 10434,
  "batsman": 15317,
  "batt@@": 9499,
  "battali@@": 33550,
  "battalion": 3655,
  "battalions": 11003,
  "batted": 12302,
  "batter": 22481,
  "batter@@": 28416,
  "battered": 17879,
  "batteries": 9764,
  "battery": 5247,
  "batting": 9008,
  "battle": 867,
  "battle@@": 18066,
  "battled": 19367,
  "battlefield": 11410,
  "battles": 6657,
  "battleship": 19150,
  "battleships": 24795,
  "battling": 18627,
  "bau@@": 6496,
  "bauer": 13721,
  "baum": 13714,
  "bavari@@": 30342,
  "bavaria": 14149,
  "bavarian": 18316,
  "baw@@": 24419,
  "baxter": 14885,
  "bay": 1404,
  "bay@@": 4713,
  "bayern": 25147,
  "baylor": 26095,
  "bayon@@": 26479,
  "bays": 15525,
  "baza@@": 29970,
  "bazaar": 25888,
  "bb": 9990,
  "bb@@": 6000,
  "bba": 27829,
  "bbc": 3098,
  "bbe": 27362,
  "bbed": 10570,
  "bber": 25602,
  "bbing": 10556,
  "bbins": 28426,
  "bbish": 29914,
  "bble": 7917,
  "bbs": 17543,
  "bby": 8358,
  "bc": 2927,
  "bce": 11709,
  "be": 43,
  "be@@": 691,
  "bea": 22628,
  "bea@@": 5026,
  "beach": 1842,
  "beach@@": 25950,
  "beaches": 12494,
  "beacon": 14683,
  "beads": 17596,
  "beak": 20382,
  "beam": 5899,
  "beamed": 21478,
  "beams": 12575,
  "bean": 10783,
  "beans": 9901,
  "bear": 2399,
  "bear@@": 12439,
  "bearable": 29297,
  "beard": 7625,
  "bearded": 25361,
  "bearer": 18785,
  "bearing": 6479,
  "bearings": 23072,
  "bears": 5321,
  "beast": 4946,
  "beasts": 14084,
  "beat": 1469,
  "beat@@": 10571,
  "beaten": 6072,
  "beating": 4233,
  "beatles": 11927,
  "beatrice": 16659,
  "beats": 7762,
  "beau": 13575,
  "beau@@": 8598,
  "beaumont": 19224,
  "beauti@@": 26543,
  "beautiful": 946,
  "beautifully": 15817,
  "beauty": 3224,
  "beaux": 26407,
  "beaver": 14146,
  "bec": 26844,
  "bec@@": 7716,
  "became": 231,
  "because": 144,
  "becca": 18437,
  "beck": 6628,
  "beck@@": 11598,
  "becker": 19050,
  "beckett": 18948,
  "becky": 12117,
  "becom@@": 30762,
  "become": 565,
  "becomes": 2723,
  "becoming": 1689,
  "bed": 641,
  "bed@@": 8335,
  "bedford": 13971,
  "bedro@@": 26703,
  "bedroom": 3052,
  "bedrooms": 18106,
  "beds": 8489,
  "bedside": 19327,
  "bedtime": 25477,
  "bee": 5902,
  "bee@@": 18823,
  "beech": 27111,
  "beef": 9437,
  "been": 78,
  "beep": 21803,
  "beer": 2838,
  "beers": 14362,
  "bees": 10951,
  "beet@@": 29056,
  "beethoven": 17811,
  "beetle": 18047,
  "beetles": 24476,
  "before": 126,
  "beforehand": 25534,
  "befri@@": 29704,
  "befriended": 25371,
  "beg": 5350,
  "beg@@": 11756,
  "began": 302,
  "begg@@": 27617,
  "beggar": 25092,
  "begged": 10725,
  "begging": 8783,
  "begin": 2112,
  "beginning": 1120,
  "beginnings": 18083,
  "begins": 2805,
  "begs": 26657,
  "begun": 4279,
  "beh@@": 12430,
  "beha@@": 27704,
  "behalf": 5732,
  "behave": 10343,
  "behaved": 21409,
  "behavi@@": 24825,
  "behaving": 22617,
  "behavior": 3829,
  "behavioral": 16421,
  "behaviors": 17629,
  "behaviour": 8557,
  "behind": 392,
  "behold": 22292,
  "bei": 13763,
  "beij@@": 31263,
  "beijing": 7599,
  "bein": 26233,
  "being": 161,
  "beings": 8038,
  "beir@@": 29584,
  "beirut": 18230,
  "bek": 17518,
  "bel": 5440,
  "bel@@": 2069,
  "belar@@": 29835,
  "belarus": 17342,
  "belarusian": 24910,
  "belfast": 11710,
  "belgarath": 21593,
  "belgi@@": 28729,
  "belgian": 7390,
  "belgium": 5845,
  "belgrade": 12035,
  "beli@@": 29237,
  "belie@@": 30729,
  "belief": 5836,
  "beliefs": 8610,
  "believ@@": 27466,
  "believe": 463,
  "believed": 1617,
  "believer": 22764,
  "believers": 22160,
  "believes": 5528,
  "believing": 7130,
  "belize": 23971,
  "bell": 2713,
  "bell@@": 3515,
  "bella": 8366,
  "belle": 7636,
  "bello": 24307,
  "bellowed": 26984,
  "bells": 8734,
  "bellum": 24294,
  "belly": 5570,
  "belmont": 21040,
  "belo@@": 28534,
  "belong": 4647,
  "belong@@": 31133,
  "belonged": 4996,
  "belonging": 7633,
  "belongings": 18654,
  "belongs": 5400,
  "beloved": 8928,
  "below": 1369,
  "bels": 25779,
  "belt": 3768,
  "belts": 16106,
  "ben": 1709,
  "ben@@": 2126,
  "bench": 5460,
  "bench@@": 23232,
  "benches": 21062,
  "bend": 7214,
  "bend@@": 16693,
  "bender": 19362,
  "bending": 13384,
  "bends": 23780,
  "bene@@": 16451,
  "beneath": 2601,
  "benedic@@": 28350,
  "benedict": 13264,
  "benedictine": 25473,
  "benef@@": 11117,
  "beneficial": 16560,
  "benefit": 4623,
  "benefited": 22275,
  "benefits": 5885,
  "beng@@": 13990,
  "bengal": 8742,
  "bengali": 14852,
  "benjam@@": 29679,
  "benjamin": 6090,
  "benji": 25840,
  "bennett": 8259,
  "benny": 10924,
  "beno@@": 26237,
  "benson": 12805,
  "bent": 4632,
  "bent@@": 23074,
  "bentley": 18474,
  "benton": 20711,
  "benz": 20252,
  "bequ@@": 26721,
  "ber": 2737,
  "ber@@": 950,
  "bered": 11269,
  "berg": 2297,
  "berg@@": 11984,
  "bergen": 12681,
  "berger": 9399,
  "bering": 13568,
  "berkeley": 8857,
  "berkshire": 19210,
  "berland": 29785,
  "berlin": 3147,
  "berman": 20937,
  "bermu@@": 29176,
  "bermuda": 15615,
  "bern": 17864,
  "bern@@": 10625,
  "bernar@@": 28462,
  "bernard": 6871,
  "bernardino": 27277,
  "bernardo": 25886,
  "bernie": 16013,
  "bernstein": 22779,
  "berra": 29892,
  "berries": 12009,
  "berry": 5087,
  "bers": 8081,
  "bert": 4178,
  "berth": 17981,
  "bertie": 22152,
  "berto": 20569,
  "bery": 15485,
  "bes": 6569,
  "beside": 2151,
  "besides": 2210,
  "besieg@@": 28828,
  "besieged": 19929,
  "bess": 20296,
  "best": 268,
  "best@@": 10183,
  "bestowed": 19811,
  "bet": 2093,
  "bet@@": 5024,
  "beta": 8255,
  "beth": 4257,
  "beth@@": 21125,
  "bethany": 16723,
  "bethel": 22498,
  "bethle@@": 33450,
  "bethlehem": 23631,
  "betra@@": 27974,
  "betray": 13908,
  "betrayal": 13338,
  "betrayed": 8583,
  "betraying": 27259,
  "betro@@": 24446,
  "bets": 16041,
  "betsy": 22394,
  "bett": 22858,
  "better": 298,
  "betting": 14727,
  "betty": 7806,
  "between": 167,
  "bev": 27334,
  "bever@@": 26336,
  "beverage": 21465,
  "beverages": 24429,
  "beverly": 11923,
  "bew@@": 23244,
  "beware": 25240,
  "bewil@@": 28210,
  "bewildered": 26053,
  "bey": 11221,
  "bey@@": 18336,
  "beyoncé": 25159,
  "beyond": 1721,
  "bez@@": 23709,
  "bf": 20908,
  "bh": 26287,
  "bh@@": 20658,
  "bha@@": 6215,
  "bhai": 26412,
  "bhar@@": 12567,
  "bhi@@": 27096,
  "bhu@@": 11557,
  "bhutan": 24629,
  "bi": 3920,
  "bi@@": 823,
  "bia": 7755,
  "bial": 20663,
  "bian": 10492,
  "bianca": 18301,
  "bians": 16647,
  "bias": 14105,
  "biased": 22894,
  "bibl@@": 30017,
  "bible": 5216,
  "bibli@@": 27665,
  "biblical": 10914,
  "biblio@@": 22829,
  "bic": 11136,
  "bic@@": 8846,
  "bick@@": 18921,
  "bicy@@": 28814,
  "bicycle": 9991,
  "bicycles": 23471,
  "bid": 5048,
  "bidding": 16263,
  "bids": 20362,
  "bie": 6500,
  "bien@@": 24065,
  "bies": 24714,
  "big": 359,
  "big@@": 13221,
  "bigger": 3921,
  "biggest": 3341,
  "bihar": 20067,
  "bike": 5111,
  "bikes": 16067,
  "bikin@@": 29429,
  "bikini": 19302,
  "bil": 14807,
  "bil@@": 4657,
  "bilateral": 20831,
  "bile": 18391,
  "bilingu@@": 29559,
  "bilingual": 21950,
  "bilities": 28400,
  "bility": 10278,
  "bill": 1249,
  "bill@@": 7766,
  "billboard": 4160,
  "billed": 17038,
  "billi@@": 21295,
  "billie": 19070,
  "billing": 27263,
  "billion": 3318,
  "billionaire": 22844,
  "billions": 21234,
  "bills": 5822,
  "billy": 3266,
  "bilt": 30719,
  "bim@@": 20912,
  "bin": 4411,
  "bin@@": 5588,
  "binary": 14087,
  "bind": 13341,
  "binding": 7787,
  "binds": 23873,
  "bing": 6513,
  "bingo": 16844,
  "bino@@": 22527,
  "bio": 11374,
  "bio@@": 3871,
  "biodiversity": 21775,
  "biographer": 19703,
  "biographical": 23152,
  "biographies": 25961,
  "biography": 9967,
  "biological": 6323,
  "biologist": 23590,
  "biology": 6737,
  "biom@@": 12753,
  "biop@@": 20963,
  "biotechnology": 27357,
  "bious": 34044,
  "bir": 24934,
  "bir@@": 4867,
  "birch": 19339,
  "bird": 2347,
  "bird@@": 19305,
  "birds": 2673,
  "birmingham": 6315,
  "birth": 2434,
  "birth@@": 16368,
  "birthday": 2703,
  "birthplace": 17407,
  "births": 21606,
  "bis": 10754,
  "bis@@": 5857,
  "biscu@@": 32196,
  "biscuit": 25749,
  "biscuits": 23618,
  "bisexual": 25586,
  "bishi": 31190,
  "bishop": 2198,
  "bishop@@": 28612,
  "bishopric": 20561,
  "bishops": 9074,
  "bison": 23781,
  "bit": 651,
  "bit@@": 5692,
  "bitch": 2329,
  "bitches": 16159,
  "bite": 4031,
  "bites": 13226,
  "biting": 9515,
  "bits": 7368,
  "bitten": 16450,
  "bitter": 7304,
  "bitter@@": 27470,
  "bitterly": 20364,
  "bitterness": 22444,
  "bius": 21974,
  "bizar@@": 29046,
  "bizarre": 12724,
  "bj@@": 15346,
  "björ@@": 23916,
  "bk": 25719,
  "bl": 12788,
  "bl@@": 1713,
  "bla@@": 3982,
  "blac@@": 26786,
  "black": 399,
  "black@@": 3343,
  "blackburn": 16966,
  "blackma@@": 19931,
  "blackmail": 16910,
  "blackness": 20547,
  "blackout": 24241,
  "blackpool": 20050,
  "blacks": 10731,
  "blacksmith": 22243,
  "blackwell": 26827,
  "bladder": 21779,
  "blade": 4517,
  "blades": 9936,
  "blah": 13748,
  "blaine": 20677,
  "blair": 10189,
  "blake": 5092,
  "blame": 3937,
  "blamed": 10124,
  "blames": 27201,
  "blaming": 17989,
  "blan@@": 7576,
  "blanc": 18551,
  "blance": 28439,
  "blanche": 18697,
  "blanco": 26151,
  "bland": 19619,
  "blank": 7342,
  "blanket": 7067,
  "blankets": 13922,
  "blasph@@": 25151,
  "blast": 6352,
  "blasted": 16773,
  "blasting": 25250,
  "blasts": 24432,
  "blat@@": 19642,
  "blaze": 16003,
  "blazing": 17239,
  "ble": 2788,
  "ble@@": 3901,
  "bleak": 22638,
  "bled": 5274,
  "bledon": 30496,
  "bleed": 13794,
  "bleeding": 6076,
  "blem": 31425,
  "blend": 12082,
  "blended": 21848,
  "blending": 26079,
  "bler": 9581,
  "blers": 20170,
  "bles": 4699,
  "bless": 9299,
  "blessed": 8719,
  "blessing": 11039,
  "blessings": 21866,
  "blew": 5840,
  "bley": 27555,
  "bli@@": 6591,
  "blies": 30347,
  "blin": 22995,
  "blin@@": 12394,
  "blind": 4018,
  "blind@@": 18298,
  "blinded": 19591,
  "blinding": 19740,
  "blindly": 25117,
  "blinds": 26624,
  "bling": 4898,
  "blings": 28898,
  "blink": 10810,
  "blinked": 6240,
  "blinking": 13947,
  "bliss": 13573,
  "blitz": 24750,
  "blizzard": 23538,
  "blo@@": 4485,
  "bloc": 18536,
  "bloc@@": 26114,
  "block": 2072,
  "block@@": 12711,
  "blockade": 16767,
  "blocked": 7148,
  "blocking": 9797,
  "blocks": 4591,
  "blog": 9835,
  "blogs": 27085,
  "bloke": 21054,
  "blon@@": 18568,
  "blond": 7358,
  "blonde": 7402,
  "bloo@@": 15487,
  "blood": 646,
  "blood@@": 6516,
  "blooded": 22149,
  "bloody": 3438,
  "bloom": 12972,
  "bloom@@": 11082,
  "blos@@": 32476,
  "blossom": 20257,
  "blossom@@": 18060,
  "blouse": 16388,
  "blow": 2974,
  "blow@@": 15861,
  "blowing": 8300,
  "blown": 7823,
  "blows": 10803,
  "blu": 17421,
  "blu@@": 5977,
  "blue": 838,
  "blue@@": 10442,
  "bluepr@@": 22976,
  "blues": 5119,
  "bluff": 14483,
  "blunt": 13735,
  "blur": 14317,
  "blur@@": 14880,
  "blurred": 19136,
  "blurted": 18683,
  "blush": 15972,
  "blushed": 18421,
  "blushing": 24291,
  "bly": 7103,
  "bly@@": 19664,
  "bm": 24850,
  "bmw": 13968,
  "bn": 18268,
  "bo": 2285,
  "bo@@": 637,
  "boa": 18435,
  "boar": 23645,
  "boar@@": 17946,
  "board": 746,
  "board@@": 22977,
  "boarded": 15925,
  "boarding": 7119,
  "boards": 5445,
  "boasted": 25638,
  "boasts": 25271,
  "boat": 1674,
  "boat@@": 24968,
  "boating": 26488,
  "boats": 4384,
  "bob": 2305,
  "bob@@": 13196,
  "bobby": 4452,
  "bobo": 27029,
  "bock": 27000,
  "bod@@": 16299,
  "bodied": 24519,
  "bodies": 2330,
  "bodily": 22127,
  "body": 344,
  "body@@": 17145,
  "bodyguard": 14517,
  "bodyguards": 24010,
  "boeing": 12279,
  "boer": 22614,
  "bog": 21986,
  "bog@@": 18116,
  "bohem@@": 28471,
  "bohemia": 20193,
  "bohemian": 22652,
  "boil": 20639,
  "boiled": 16177,
  "boiler": 16275,
  "boilers": 23126,
  "boiling": 15055,
  "bois": 16019,
  "boise": 24649,
  "bok": 21482,
  "bol": 16712,
  "bol@@": 3864,
  "bola": 27388,
  "bold": 7874,
  "boldt": 30338,
  "boli@@": 18507,
  "bolivia": 16345,
  "boll@@": 12602,
  "bollywood": 19475,
  "bolog@@": 29479,
  "bologna": 16986,
  "bols": 30839,
  "bolsh@@": 29602,
  "bolshevi@@": 18296,
  "bolt": 7824,
  "bolted": 17737,
  "bolton": 13471,
  "bolts": 17616,
  "bom@@": 11489,
  "bomb": 3532,
  "bomb@@": 28173,
  "bombar@@": 17235,
  "bombardment": 13176,
  "bombay": 13106,
  "bombed": 17917,
  "bomber": 9816,
  "bombers": 10934,
  "bombing": 7924,
  "bombings": 22040,
  "bombs": 8267,
  "bon": 8575,
  "bon@@": 2584,
  "bonaparte": 24648,
  "bond": 3978,
  "bond@@": 25737,
  "bonded": 21001,
  "bonding": 19299,
  "bonds": 8906,
  "bone": 3235,
  "bones": 3594,
  "bong": 21127,
  "boni@@": 25416,
  "bonn": 25837,
  "bonne": 22321,
  "bonnet": 24189,
  "bonnie": 10593,
  "bono": 22861,
  "bonus": 7477,
  "bony": 24907,
  "boo": 11918,
  "boo@@": 4373,
  "boobs": 19406,
  "boogie": 24179,
  "book": 435,
  "book@@": 7167,
  "booked": 12370,
  "booker": 20534,
  "booking": 21429,
  "booklet": 25681,
  "books": 1089,
  "bookstore": 22011,
  "boom": 5856,
  "booming": 25272,
  "boon": 25208,
  "boone": 15667,
  "boost": 12604,
  "booster": 25597,
  "boot": 7293,
  "boot@@": 17106,
  "booth": 6897,
  "boots": 4951,
  "booty": 23526,
  "booze": 16419,
  "bop": 24000,
  "bor": 17222,
  "bor@@": 2108,
  "bordeaux": 20192,
  "border": 2247,
  "border@@": 21790,
  "bordered": 12368,
  "bordering": 21015,
  "borders": 6263,
  "bore": 7266,
  "bore@@": 26360,
  "bored": 7305,
  "boredom": 26891,
  "borg": 8581,
  "boring": 6578,
  "boris": 12237,
  "born": 236,
  "borne": 10063,
  "borneo": 23754,
  "boro": 9157,
  "borough": 3603,
  "boroughs": 24193,
  "borrow": 9267,
  "borrowed": 9922,
  "borrowing": 23186,
  "bos": 12559,
  "bos@@": 22659,
  "bosch": 24069,
  "bose": 21741,
  "bosni@@": 28579,
  "bosnia": 11578,
  "bosnian": 20368,
  "boss": 2005,
  "bosses": 19564,
  "boston": 2481,
  "bot": 13803,
  "bot@@": 9793,
  "botan@@": 23368,
  "botanical": 15943,
  "botanist": 21145,
  "botany": 20892,
  "both": 186,
  "bother": 4208,
  "bothered": 8842,
  "bothering": 11166,
  "bothers": 23694,
  "bots": 16842,
  "bott": 28984,
  "bott@@": 11440,
  "bottle": 3416,
  "bottled": 26551,
  "bottles": 8978,
  "bottom": 2084,
  "bottoms": 23146,
  "bou": 26248,
  "bou@@": 5283,
  "bought": 1890,
  "boul@@": 20108,
  "boulder": 14496,
  "boulders": 24313,
  "boulev@@": 29405,
  "boulevard": 8615,
  "boun@@": 29616,
  "bounc@@": 17268,
  "bounce": 14920,
  "bounced": 12743,
  "bouncing": 15470,
  "bound": 3222,
  "bound@@": 28966,
  "boundaries": 6909,
  "boundary": 5731,
  "bounded": 9606,
  "bounds": 19765,
  "bounty": 15468,
  "bouquet": 24988,
  "bour": 28197,
  "bour@@": 7535,
  "bourbon": 15791,
  "bourg": 18706,
  "bourgeo@@": 28590,
  "bourgeois": 24895,
  "bourne": 8173,
  "bours": 28703,
  "bout": 8195,
  "boutique": 27138,
  "bouts": 26686,
  "bow": 4321,
  "bow@@": 5100,
  "bowed": 9994,
  "bowen": 19460,
  "bowie": 17707,
  "bowing": 24890,
  "bowl": 3020,
  "bowled": 21472,
  "bowler": 16554,
  "bowling": 8534,
  "bowls": 15897,
  "bowman": 22631,
  "bows": 16075,
  "box": 1325,
  "box@@": 13652,
  "boxer": 10413,
  "boxers": 18389,
  "boxes": 6048,
  "boxing": 7253,
  "boy": 558,
  "boy@@": 6469,
  "boycott": 19844,
  "boyd": 12137,
  "boyfriend": 3317,
  "boyfriends": 24526,
  "boyle": 18429,
  "boys": 1144,
  "bp": 14281,
  "br": 1757,
  "br@@": 1825,
  "bra": 5234,
  "bra@@": 1588,
  "brac@@": 17454,
  "brace": 16072,
  "braced": 16251,
  "bracelet": 15411,
  "braces": 21767,
  "bracing": 27530,
  "brack@@": 15172,
  "bracket": 27383,
  "brackets": 25080,
  "brad": 6953,
  "brad@@": 10357,
  "bradford": 11098,
  "bradley": 9325,
  "brady": 9596,
  "brae": 22350,
  "brah@@": 9931,
  "braid": 25352,
  "brain": 1935,
  "brain@@": 11548,
  "brains": 8737,
  "brake": 12417,
  "brakes": 12397,
  "bram": 21661,
  "bram@@": 15879,
  "bran": 22235,
  "bran@@": 4323,
  "branch": 2248,
  "branched": 23438,
  "branches": 4732,
  "branching": 27159,
  "brand": 2861,
  "branded": 11867,
  "brandenburg": 20570,
  "branding": 15908,
  "brandon": 8056,
  "brands": 10061,
  "brandt": 15845,
  "brandy": 14838,
  "bras": 17233,
  "brass": 8733,
  "brat": 18332,
  "brate": 25142,
  "brates": 20124,
  "braun": 26798,
  "brave": 5976,
  "bravery": 17485,
  "braves": 16291,
  "bravo": 11275,
  "brawl": 23673,
  "bray": 17872,
  "braz@@": 21861,
  "brazil": 4103,
  "brazilian": 6185,
  "bre": 9351,
  "bre@@": 2455,
  "brea@@": 12606,
  "breach": 11439,
  "breached": 25962,
  "bread": 5034,
  "bread@@": 19091,
  "break": 984,
  "break@@": 9100,
  "breakdown": 12198,
  "breaker": 14060,
  "breakers": 20156,
  "breakfast": 3627,
  "breaking": 2874,
  "breaks": 5755,
  "breakthrough": 12721,
  "breakup": 18659,
  "breast": 6288,
  "breast@@": 17788,
  "breasts": 10218,
  "breath": 1168,
  "breath@@": 15847,
  "breathe": 4071,
  "breathed": 7679,
  "breathing": 3663,
  "breathless": 17157,
  "breaths": 11745,
  "brec@@": 18381,
  "brecht": 21394,
  "bred": 11682,
  "bree": 17849,
  "bree@@": 19186,
  "breed": 7818,
  "breed@@": 29157,
  "breeders": 24605,
  "breeding": 7372,
  "breeds": 17259,
  "breeze": 8122,
  "bremen": 21016,
  "bren@@": 17479,
  "brend@@": 28405,
  "brenda": 14388,
  "brendan": 17124,
  "brennan": 12642,
  "brent": 14530,
  "brent@@": 20827,
  "bres": 26711,
  "bret": 22295,
  "brethren": 19117,
  "breton": 21380,
  "brett": 12663,
  "brevi@@": 29165,
  "brew": 21393,
  "brew@@": 17816,
  "brewer": 22760,
  "brewers": 25125,
  "brewery": 13074,
  "brewing": 16777,
  "brewster": 25436,
  "brey": 29711,
  "bri@@": 1991,
  "bria": 13085,
  "brian": 3041,
  "brianna": 25973,
  "bribe": 19577,
  "brick": 3969,
  "brick@@": 18071,
  "bricks": 13634,
  "brid@@": 9633,
  "bride": 6319,
  "bride@@": 23908,
  "brides": 25594,
  "bridg@@": 17739,
  "bridge": 1079,
  "bridge@@": 15857,
  "bridges": 6940,
  "bridget": 18871,
  "brief": 3400,
  "brief@@": 15920,
  "briefcase": 16648,
  "briefing": 19783,
  "briefly": 3581,
  "brien": 10695,
  "brig": 19026,
  "brig@@": 13582,
  "briga@@": 30103,
  "brigade": 3510,
  "brigades": 16543,
  "brigadier": 11406,
  "briggs": 16216,
  "brigh@@": 24280,
  "bright": 2424,
  "brighter": 16020,
  "brightest": 26481,
  "brightly": 13988,
  "brightness": 20689,
  "brighton": 10984,
  "brilli@@": 18448,
  "brilliant": 5121,
  "brin@@": 22351,
  "bring": 776,
  "bringing": 2986,
  "brings": 5005,
  "brink": 20437,
  "bris": 29030,
  "bris@@": 29537,
  "brisbane": 8053,
  "bristol": 7104,
  "brit@@": 9650,
  "britain": 2429,
  "britan@@": 26744,
  "british": 522,
  "britt@@": 21251,
  "brittany": 13359,
  "brittle": 26628,
  "brium": 29823,
  "bro": 6186,
  "bro@@": 2332,
  "broad": 3845,
  "broad@@": 8228,
  "broadband": 24005,
  "broadca@@": 30971,
  "broadcast": 2428,
  "broadcaster": 13854,
  "broadcasters": 21851,
  "broadcasting": 4381,
  "broadcasts": 9217,
  "broader": 13679,
  "broadly": 15020,
  "broadway": 5370,
  "broch@@": 26589,
  "brock": 14629,
  "brock@@": 21309,
  "brody": 17499,
  "broke": 1493,
  "broken": 1628,
  "broker": 16589,
  "brom@@": 17348,
  "bron": 24813,
  "bron@@": 7751,
  "broncos": 16341,
  "bronx": 15285,
  "bronze": 4202,
  "broo@@": 12209,
  "brook": 5814,
  "brook@@": 12055,
  "brooke": 8881,
  "brooklyn": 5992,
  "brooks": 8710,
  "broom": 20729,
  "bros": 10644,
  "brothel": 24020,
  "brother": 498,
  "brother@@": 28295,
  "brotherhood": 12810,
  "brothers": 1668,
  "brou@@": 13800,
  "brough": 28044,
  "brought": 711,
  "brow": 7012,
  "brow@@": 9333,
  "brown": 1210,
  "brown@@": 16804,
  "browne": 20092,
  "browning": 22236,
  "brownish": 25329,
  "browns": 14613,
  "brows": 10850,
  "browser": 20133,
  "bru@@": 3584,
  "bruce": 4817,
  "bruins": 21781,
  "bruise": 22288,
  "bruised": 17790,
  "bruises": 15654,
  "brun@@": 10439,
  "brunei": 26021,
  "brunette": 24699,
  "bruno": 11457,
  "brunswick": 10238,
  "brus@@": 29911,
  "brush": 5447,
  "brushed": 6646,
  "brushes": 20783,
  "brushing": 12090,
  "brussels": 10707,
  "brutal": 10658,
  "brutality": 24480,
  "brutally": 23046,
  "brute": 23777,
  "bry@@": 10948,
  "bryan": 9430,
  "bryant": 14571,
  "bryce": 19116,
  "bryn": 21736,
  "bryn@@": 19567,
  "brü@@": 19431,
  "bs": 2430,
  "bt": 15038,
  "bt@@": 24989,
  "bu": 6450,
  "bu@@": 767,
  "bub@@": 12784,
  "bubba": 18688,
  "bubble": 10531,
  "bubbles": 15631,
  "buc@@": 28820,
  "buccan@@": 29610,
  "buccaneers": 27053,
  "buchanan": 16923,
  "bucharest": 17675,
  "buck": 7026,
  "buck@@": 6869,
  "bucket": 10746,
  "buckingham": 20407,
  "buckle": 17762,
  "buckled": 23343,
  "buckley": 21002,
  "bucks": 6002,
  "bud": 8864,
  "bud@@": 8374,
  "budap@@": 31707,
  "budapest": 13643,
  "budd@@": 25459,
  "buddha": 11568,
  "buddhi@@": 28098,
  "buddhism": 12316,
  "buddhist": 8085,
  "buddies": 15714,
  "buddy": 3544,
  "budge": 23980,
  "budget": 3999,
  "buds": 22807,
  "buenos": 10220,
  "buff": 22044,
  "buff@@": 12114,
  "buffalo": 6536,
  "buffer": 19558,
  "buffet": 24483,
  "buffy": 16593,
  "bug": 8029,
  "bug@@": 23295,
  "bugger": 26998,
  "bugs": 10207,
  "buil@@": 27451,
  "build": 2030,
  "builder": 12293,
  "builders": 15603,
  "building": 440,
  "buildings": 1557,
  "builds": 16995,
  "built": 484,
  "buk@@": 26210,
  "bul": 27817,
  "bul@@": 5103,
  "bula": 18745,
  "bular": 18395,
  "bulary": 27935,
  "bulb": 17870,
  "bulbs": 24072,
  "bulg@@": 28326,
  "bulgaria": 9765,
  "bulgarian": 9512,
  "bulge": 25511,
  "bulk": 9456,
  "bull": 4864,
  "bull@@": 4810,
  "bulldogs": 17057,
  "bullet": 5014,
  "bullet@@": 23825,
  "bulletin": 16590,
  "bullets": 7776,
  "bulls": 12857,
  "bullshit": 5225,
  "bully": 16224,
  "bullying": 18224,
  "bulous": 29743,
  "bum": 13020,
  "bum@@": 17590,
  "bump": 12730,
  "bumped": 15940,
  "bumper": 20916,
  "bumps": 15864,
  "bun": 15420,
  "bun@@": 4723,
  "bunch": 4667,
  "bund@@": 13151,
  "bunde@@": 27853,
  "bundesliga": 18252,
  "bundle": 13789,
  "bungal@@": 29262,
  "bungalow": 27358,
  "bunk": 20142,
  "bunk@@": 20075,
  "bunker": 14959,
  "bunny": 13031,
  "bur": 13705,
  "bur@@": 1507,
  "burden": 8983,
  "bure@@": 25348,
  "bureau": 3752,
  "bureau@@": 28969,
  "bureaucr@@": 14083,
  "burg": 3583,
  "burg@@": 17500,
  "burger": 10186,
  "burgers": 18341,
  "burgess": 21657,
  "burgh": 13211,
  "burgun@@": 28917,
  "burgundy": 19483,
  "buri@@": 22681,
  "burial": 8788,
  "buried": 2721,
  "burke": 9856,
  "burlington": 19499,
  "burma": 12990,
  "burmese": 18611,
  "burn": 2495,
  "burn@@": 11309,
  "burne": 24338,
  "burned": 3427,
  "burner": 26385,
  "burnett": 14980,
  "burning": 3490,
  "burns": 6208,
  "burnt": 9189,
  "burrows": 24906,
  "burst": 4548,
  "bursting": 20690,
  "bursts": 16802,
  "burt": 17079,
  "burton": 9140,
  "bury": 3050,
  "burying": 20059,
  "bus": 1611,
  "bus@@": 27302,
  "busch": 17688,
  "buses": 7163,
  "bush": 4468,
  "bush@@": 13798,
  "bushes": 13302,
  "busiest": 22805,
  "busin@@": 31484,
  "busines@@": 29192,
  "business": 455,
  "business@@": 26190,
  "businesses": 4769,
  "businessman": 6353,
  "businessmen": 17730,
  "bust": 9500,
  "busted": 12104,
  "buster": 11787,
  "busters": 25976,
  "busting": 27366,
  "busy": 2338,
  "but": 45,
  "but@@": 5852,
  "butch": 17138,
  "butcher": 12883,
  "butler": 6984,
  "butt": 5947,
  "butt@@": 14132,
  "butter": 8929,
  "butter@@": 14427,
  "butterflies": 15923,
  "butterfly": 9577,
  "button": 4405,
  "buttoned": 24346,
  "buttons": 9735,
  "butts": 24608,
  "buy": 1608,
  "buyer": 16000,
  "buyers": 17526,
  "buying": 5879,
  "buys": 18588,
  "buz@@": 28972,
  "buzz": 9945,
  "buzz@@": 14739,
  "buzzed": 21751,
  "buzzing": 19206,
  "by": 35,
  "by@@": 3380,
  "bye": 1708,
  "byes": 25073,
  "byl": 24702,
  "byn": 22841,
  "bypass": 12119,
  "byr@@": 27506,
  "byrd": 24632,
  "byrne": 19518,
  "byron": 13536,
  "byshire": 32011,
  "byz@@": 23203,
  "byzantine": 8959,
  "bá@@": 26787,
  "bé@@": 11001,
  "bö@@": 26306,
  "bü@@": 17965,
  "c": 258,
  "c1": 22557,
  "c2": 23676,
  "c@@": 427,
  "ca": 2384,
  "ca@@": 1295,
  "caa": 27492,
  "cab": 6391,
  "cab@@": 5215,
  "cabaret": 23127,
  "cabbage": 25781,
  "cabin": 5047,
  "cabinet": 4290,
  "cabinets": 21542,
  "cabins": 23140,
  "cable": 4520,
  "cables": 15958,
  "cac@@": 18770,
  "cache": 20551,
  "cactus": 25530,
  "cad@@": 5775,
  "cade": 14059,
  "caden": 24175,
  "cadence": 25783,
  "cadet": 14050,
  "cadets": 17048,
  "cadi@@": 25168,
  "cadill@@": 30071,
  "cadillac": 21169,
  "cae@@": 29440,
  "caes@@": 25154,
  "caesar": 10128,
  "caf": 23215,
  "caf@@": 19254,
  "cafe": 10221,
  "cafeter@@": 30234,
  "cafeteria": 15561,
  "caff@@": 26042,
  "caffeine": 27363,
  "café": 12679,
  "cag@@": 16830,
  "cage": 5942,
  "cages": 25579,
  "caid": 31287,
  "cain": 10967,
  "caine": 17789,
  "cair@@": 16045,
  "cairo": 12356,
  "cait@@": 28954,
  "caitlin": 25261,
  "cake": 4593,
  "cakes": 13630,
  "cal": 7658,
  "cal@@": 1994,
  "calab@@": 23455,
  "calam@@": 25052,
  "calci@@": 29026,
  "calcium": 15202,
  "calcu@@": 27497,
  "calcul@@": 28474,
  "calculate": 19313,
  "calculated": 10049,
  "calculating": 21432,
  "calculation": 18519,
  "calculations": 16373,
  "calculus": 22261,
  "calcutta": 15344,
  "calder": 22524,
  "calder@@": 26174,
  "caldwell": 19535,
  "cale": 22491,
  "caleb": 8531,
  "caled@@": 18956,
  "calend@@": 28090,
  "calendar": 7500,
  "calf": 16128,
  "calgary": 12062,
  "cali@@": 7825,
  "caliber": 15554,
  "califor@@": 26226,
  "california": 1028,
  "caliph": 26387,
  "call": 311,
  "call@@": 4700,
  "callahan": 26942,
  "called": 218,
  "caller": 18696,
  "calli@@": 18828,
  "callie": 17759,
  "calling": 1671,
  "calls": 2131,
  "callum": 13702,
  "calm": 2036,
  "calmed": 20127,
  "calming": 24014,
  "calmly": 11904,
  "calvin": 10445,
  "caly@@": 28373,
  "calyp@@": 21322,
  "cam": 8623,
  "cam@@": 2183,
  "cambo@@": 27184,
  "cambodia": 15629,
  "cambridge": 4509,
  "camden": 14893,
  "came": 234,
  "camel": 18451,
  "cameo": 16292,
  "camer@@": 15302,
  "camera": 2742,
  "cameras": 6310,
  "cameron": 6580,
  "cameroon": 21506,
  "camille": 17029,
  "camou@@": 32391,
  "camoufl@@": 28791,
  "camouflage": 22111,
  "camp": 1663,
  "camp@@": 7426,
  "campa@@": 30689,
  "campaig@@": 28206,
  "campaign": 1431,
  "campaigned": 18520,
  "campaigning": 20781,
  "campaigns": 7884,
  "campan@@": 25115,
  "campbell": 5968,
  "campe@@": 25457,
  "camping": 12424,
  "camps": 7318,
  "campu@@": 30755,
  "campus": 2342,
  "campuses": 15435,
  "can": 62,
  "can@@": 1364,
  "canada": 1153,
  "canadi@@": 29859,
  "canadian": 1551,
  "canadians": 18626,
  "canadiens": 27342,
  "canal": 3959,
  "canals": 19672,
  "canary": 19986,
  "canberra": 16539,
  "cancel": 11013,
  "cancel@@": 28759,
  "canceled": 11936,
  "cancell@@": 28070,
  "cancellation": 19398,
  "cancelled": 7614,
  "cancer": 3174,
  "cand@@": 8339,
  "candace": 22754,
  "candi@@": 27483,
  "candid@@": 29356,
  "candidacy": 20105,
  "candidate": 3090,
  "candidates": 4556,
  "candle": 11659,
  "candles": 11564,
  "candy": 6649,
  "cane": 8935,
  "cann@@": 28346,
  "cannab@@": 29505,
  "cannabis": 21373,
  "canned": 25965,
  "cannes": 18895,
  "cannon": 8059,
  "cannons": 17480,
  "cannot": 1400,
  "canny": 27300,
  "canoe": 16829,
  "canon": 10258,
  "canon@@": 24710,
  "canonical": 21744,
  "canons": 26460,
  "canopy": 15805,
  "cans": 10998,
  "canteen": 25727,
  "canter@@": 30130,
  "canterbury": 11522,
  "canton": 10249,
  "canton@@": 19858,
  "canvas": 11320,
  "cany@@": 28158,
  "canyon": 8278,
  "cao": 13586,
  "cap": 4435,
  "cap@@": 2754,
  "capabilities": 10178,
  "capability": 11388,
  "capable": 3548,
  "capac@@": 13987,
  "capacities": 24991,
  "capacity": 2917,
  "cape": 4154,
  "capit@@": 13569,
  "capita": 10373,
  "capital": 1519,
  "capitali@@": 16211,
  "capitalism": 18807,
  "capitalist": 21343,
  "capitals": 18477,
  "capitol": 10190,
  "capped": 16068,
  "caps": 10581,
  "capsu@@": 28263,
  "capsule": 18849,
  "capt": 19963,
  "captain": 943,
  "captained": 18623,
  "captains": 16689,
  "captiv@@": 26301,
  "captive": 12442,
  "captives": 24368,
  "captivity": 17776,
  "capture": 4195,
  "captured": 2624,
  "captures": 23198,
  "capturing": 12073,
  "car": 370,
  "car@@": 753,
  "cara": 13383,
  "carac@@": 20843,
  "caram@@": 23894,
  "caravan": 18353,
  "carb@@": 20778,
  "carbon": 5297,
  "carbon@@": 12064,
  "carcin@@": 22984,
  "card": 1837,
  "card@@": 28327,
  "cardboard": 20277,
  "cardi@@": 10736,
  "cardiac": 15825,
  "cardiff": 11348,
  "cardin@@": 28468,
  "cardinal": 7116,
  "cardinals": 9828,
  "cards": 3272,
  "care": 481,
  "cared": 6656,
  "career": 686,
  "careers": 11431,
  "careful": 2363,
  "carefully": 3443,
  "careless": 20281,
  "cares": 7102,
  "caress": 21261,
  "caressed": 22453,
  "caressing": 26423,
  "caret@@": 29210,
  "caretaker": 18822,
  "carey": 13427,
  "cargo": 5619,
  "cari@@": 19450,
  "carib@@": 30449,
  "caribbean": 7256,
  "caric@@": 25230,
  "caring": 9935,
  "carl": 4416,
  "carl@@": 16639,
  "carla": 14606,
  "carlisle": 15459,
  "carlo": 10299,
  "carlos": 5465,
  "carlson": 26966,
  "carlton": 14715,
  "carly": 17238,
  "carmel": 23379,
  "carmel@@": 22820,
  "carmen": 11856,
  "carmine": 19085,
  "carne@@": 29687,
  "carnegie": 12761,
  "carni@@": 16544,
  "carnival": 11706,
  "carol": 7336,
  "carol@@": 17411,
  "carolina": 2630,
  "caroline": 7089,
  "carolyn": 17112,
  "carp@@": 17784,
  "carpath@@": 25559,
  "carpenter": 11437,
  "carpet": 8603,
  "carr": 15094,
  "carri@@": 15474,
  "carriage": 6934,
  "carriages": 18343,
  "carrie": 10590,
  "carried": 1685,
  "carrier": 6330,
  "carriers": 11727,
  "carries": 7156,
  "carroll": 12579,
  "carrot": 21902,
  "carry": 2175,
  "carrying": 3077,
  "cars": 1903,
  "carson": 9149,
  "cart": 8479,
  "cart@@": 5138,
  "cartel": 19570,
  "carter": 4387,
  "cartha@@": 28351,
  "carthage": 26563,
  "carto@@": 23992,
  "cartoon": 9541,
  "cartoonist": 24737,
  "cartoons": 14692,
  "cartridge": 17035,
  "cartridges": 25910,
  "carts": 25532,
  "carved": 7203,
  "carver": 20243,
  "carving": 18834,
  "carvings": 25842,
  "cary": 19702,
  "cas": 16369,
  "cas@@": 2810,
  "casa": 17782,
  "casc@@": 20726,
  "cascade": 20262,
  "case": 543,
  "cases": 1801,
  "casey": 7979,
  "cash": 2873,
  "cash@@": 22207,
  "casino": 8102,
  "casket": 24974,
  "casm": 33451,
  "casper": 26467,
  "cass": 12783,
  "cassandra": 15073,
  "cassette": 18426,
  "cassi@@": 19282,
  "cassidy": 13740,
  "cassie": 7271,
  "cast": 1707,
  "cast@@": 6284,
  "caste": 15243,
  "castell@@": 20348,
  "caster": 27669,
  "casters": 29214,
  "castile": 20238,
  "castillo": 25551,
  "casting": 8049,
  "castle": 1687,
  "castle@@": 25900,
  "castles": 17045,
  "castro": 13849,
  "casts": 17046,
  "casu@@": 29020,
  "casual": 8912,
  "casually": 12626,
  "casualties": 7928,
  "casualty": 21271,
  "casus": 30437,
  "cat": 2371,
  "cat@@": 2633,
  "catac@@": 25203,
  "catal@@": 23187,
  "catalan": 18521,
  "catalina": 24945,
  "catalo@@": 17324,
  "catalog": 14603,
  "catalogue": 13928,
  "catalonia": 22027,
  "cataly@@": 12707,
  "catalyst": 19078,
  "catapul@@": 27221,
  "catastro@@": 29355,
  "catastrophe": 24549,
  "catastrophic": 24333,
  "catch": 1756,
  "catcher": 12556,
  "catches": 10313,
  "catching": 7160,
  "categ@@": 30906,
  "categor@@": 18418,
  "categories": 6989,
  "categorized": 23043,
  "category": 4030,
  "cater": 25942,
  "cater@@": 15210,
  "catering": 19998,
  "cath@@": 14313,
  "cathe@@": 28275,
  "cathedr@@": 28291,
  "cathedral": 4388,
  "catherine": 5843,
  "catho@@": 27902,
  "cathol@@": 28980,
  "catholic": 1791,
  "catholicism": 18361,
  "catholics": 11069,
  "cathy": 16965,
  "cation": 21989,
  "cato": 25703,
  "cats": 6211,
  "cattle": 6075,
  "cau@@": 5553,
  "cauca@@": 29728,
  "caucasian": 24884,
  "caucasus": 20417,
  "caucus": 19705,
  "caught": 1187,
  "caul@@": 18933,
  "cause": 878,
  "caused": 1610,
  "causes": 4319,
  "causew@@": 30215,
  "causeway": 27335,
  "causing": 3455,
  "cauti@@": 31748,
  "caution": 10775,
  "cautious": 15334,
  "cautiously": 15377,
  "cav@@": 10613,
  "cavali@@": 19380,
  "cavalry": 5285,
  "cave": 3950,
  "cavern": 17162,
  "caves": 10461,
  "cavity": 18548,
  "cay@@": 12122,
  "cb": 15564,
  "cb@@": 11566,
  "cbc": 15959,
  "cbs": 6233,
  "cc": 5684,
  "cc@@": 5088,
  "cca": 18476,
  "cci": 12111,
  "cco": 23181,
  "cd": 3309,
  "cd@@": 13201,
  "cdc": 23701,
  "cdp": 8765,
  "cds": 15503,
  "ce": 2415,
  "ce@@": 4340,
  "cea@@": 24901,
  "cease": 11976,
  "cease@@": 31681,
  "ceased": 6821,
  "ceasefire": 26822,
  "cec@@": 17361,
  "cecil": 14525,
  "cecilia": 22912,
  "ced": 11147,
  "ced@@": 15170,
  "cedar": 12565,
  "ceded": 21464,
  "cedes": 30803,
  "cee": 25720,
  "ceful": 21594,
  "ceil@@": 29793,
  "ceiling": 4821,
  "ceilings": 23464,
  "cel": 26866,
  "cel@@": 4421,
  "celebr@@": 28297,
  "celebrate": 5917,
  "celebrated": 5809,
  "celebrates": 27162,
  "celebrating": 11084,
  "celebration": 6799,
  "celebrations": 13155,
  "celebrities": 12461,
  "celebrity": 8433,
  "celer@@": 29932,
  "celest@@": 27150,
  "celeste": 23402,
  "celestial": 19390,
  "celia": 17487,
  "cell": 1597,
  "cell@@": 6138,
  "cellar": 13073,
  "cello": 14293,
  "cells": 3158,
  "cellular": 12880,
  "cels": 26792,
  "celtic": 9093,
  "cely": 33909,
  "celyn": 30027,
  "cem@@": 16587,
  "cement": 10926,
  "cemet@@": 31970,
  "cemeter@@": 35551,
  "cemeteries": 26474,
  "cemetery": 4170,
  "cen@@": 7045,
  "censorship": 17618,
  "census": 1612,
  "cent": 7669,
  "cent@@": 5362,
  "centenary": 23157,
  "centennial": 19409,
  "center": 649,
  "center@@": 19511,
  "centered": 8702,
  "centers": 5823,
  "centi@@": 18575,
  "centimeters": 21260,
  "centr@@": 12747,
  "central": 757,
  "centralized": 26766,
  "centre": 1284,
  "centred": 18727,
  "centres": 9313,
  "centri@@": 26330,
  "centric": 21152,
  "cents": 12490,
  "centu@@": 18637,
  "centuries": 3364,
  "century": 473,
  "ceo": 5308,
  "cep@@": 13942,
  "cephal@@": 21061,
  "cept": 28766,
  "ception": 31999,
  "cer": 9113,
  "cer@@": 3245,
  "ceram@@": 29261,
  "ceramic": 16710,
  "ceramics": 21417,
  "cere": 30068,
  "cere@@": 20914,
  "cereal": 18874,
  "cerebr@@": 29956,
  "cerebral": 20313,
  "cerem@@": 28440,
  "ceremon@@": 30804,
  "ceremonial": 13820,
  "ceremonies": 11615,
  "ceremony": 3875,
  "cers": 13869,
  "certain": 1194,
  "certain@@": 28749,
  "certainly": 2201,
  "certainty": 16143,
  "certi@@": 20742,
  "certific@@": 30306,
  "certificate": 7920,
  "certificates": 20418,
  "certification": 12147,
  "certified": 7333,
  "cerv@@": 23677,
  "ces": 7448,
  "ces@@": 15387,
  "cess@@": 21678,
  "cester": 29993,
  "cestershire": 46559,
  "cet": 23389,
  "cet@@": 15404,
  "cey@@": 29300,
  "ceylon": 20271,
  "cf": 12098,
  "cf@@": 20964,
  "cfl": 25791,
  "ch": 1542,
  "ch@@": 604,
  "cha": 5137,
  "cha@@": 1500,
  "chad": 9352,
  "chad@@": 24078,
  "chai": 26427,
  "chai@@": 21737,
  "chain": 3178,
  "chain@@": 27196,
  "chained": 19526,
  "chains": 8226,
  "chair": 1472,
  "chair@@": 17165,
  "chaired": 13917,
  "chairman": 2242,
  "chairperson": 26249,
  "chairs": 6787,
  "chal": 22730,
  "chal@@": 8528,
  "chalk": 16846,
  "chall@@": 28877,
  "challeng@@": 28265,
  "challenge": 2697,
  "challenged": 7330,
  "challenger": 14344,
  "challenges": 7595,
  "challenging": 9891,
  "cham": 21326,
  "cham@@": 6167,
  "chamber": 3421,
  "chamber@@": 28620,
  "chamberlain": 15138,
  "chambers": 8099,
  "champ": 14141,
  "champag@@": 30566,
  "champagne": 8159,
  "champi@@": 22817,
  "champion": 2484,
  "champions": 3692,
  "championship": 990,
  "championships": 2300,
  "chan": 6607,
  "chan@@": 4230,
  "chanan": 30470,
  "chanc@@": 29400,
  "chance": 979,
  "chancel": 19046,
  "chancell@@": 27722,
  "chancellor": 7041,
  "chances": 6650,
  "chand@@": 9475,
  "chandler": 12688,
  "chandra": 19173,
  "chang": 9808,
  "chang@@": 9120,
  "change": 659,
  "changed": 958,
  "changes": 1759,
  "changing": 3561,
  "channel": 1618,
  "channels": 6113,
  "chant": 16994,
  "chant@@": 25954,
  "chanting": 23025,
  "chao": 26922,
  "chaos": 7094,
  "chaotic": 20508,
  "chap": 20901,
  "chap@@": 13281,
  "chapel": 4224,
  "chaplain": 15835,
  "chapman": 13595,
  "chapp@@": 26404,
  "chapter": 1517,
  "chapters": 9520,
  "char": 23391,
  "char@@": 2832,
  "charac@@": 30553,
  "character": 1147,
  "character@@": 10781,
  "characterised": 19630,
  "characteristic": 7885,
  "characteristics": 6740,
  "characterized": 7205,
  "characters": 1976,
  "charcoal": 19971,
  "chard": 19312,
  "chards": 30942,
  "charest": 30415,
  "charge": 1657,
  "charged": 3700,
  "charger": 24399,
  "chargers": 21306,
  "charges": 3923,
  "charging": 11095,
  "chariot": 24842,
  "charis@@": 27872,
  "charismatic": 26000,
  "charitable": 12004,
  "charities": 17720,
  "charity": 4781,
  "charle@@": 22825,
  "charles": 1266,
  "charleston": 11663,
  "charley": 19891,
  "charlie": 2385,
  "charlotte": 4740,
  "charlton": 21783,
  "charm": 8775,
  "charming": 7894,
  "charms": 23270,
  "chart": 2391,
  "chart@@": 12725,
  "charted": 13138,
  "charter": 5481,
  "chartered": 13865,
  "charting": 20866,
  "charts": 5327,
  "chas": 26215,
  "chase": 3450,
  "chased": 11092,
  "chasing": 8247,
  "chassis": 13150,
  "chast@@": 19725,
  "chat": 8064,
  "chat@@": 6924,
  "chatham": 21674,
  "chatt@@": 20312,
  "chatter": 21228,
  "chatting": 18952,
  "chau@@": 11453,
  "chauff@@": 25412,
  "che": 4752,
  "che@@": 3809,
  "chea@@": 18255,
  "cheap": 6355,
  "cheaper": 15099,
  "cheat": 12332,
  "cheated": 13365,
  "cheating": 10359,
  "chec@@": 12505,
  "check": 1198,
  "check@@": 10065,
  "checked": 3903,
  "checking": 5883,
  "checks": 10327,
  "ched": 3386,
  "chee": 20446,
  "chee@@": 19115,
  "cheek": 3538,
  "cheek@@": 19446,
  "cheeks": 4603,
  "cheer": 10353,
  "cheer@@": 12427,
  "cheered": 25321,
  "cheerful": 17265,
  "cheering": 20352,
  "cheerleader": 27370,
  "cheers": 8390,
  "cheese": 5738,
  "cheet@@": 26522,
  "chef": 6687,
  "chel": 24259,
  "chel@@": 13823,
  "chelsea": 8907,
  "cheltenham": 23642,
  "chem@@": 8931,
  "chemical": 3796,
  "chemicals": 11438,
  "chemist": 13321,
  "chemistry": 5337,
  "chemo@@": 22916,
  "chen": 6001,
  "chen@@": 10120,
  "cheng": 14879,
  "cheng@@": 19293,
  "chenko": 22515,
  "chennai": 14256,
  "cheon": 18294,
  "chequ@@": 27410,
  "cher": 4788,
  "cher@@": 4207,
  "cherok@@": 30011,
  "cherokee": 15325,
  "cherry": 8132,
  "chers": 8843,
  "cheryl": 18491,
  "ches": 3534,
  "ches@@": 18518,
  "chesapeake": 24249,
  "cheshire": 16553,
  "chess": 6938,
  "chest": 1274,
  "chest@@": 16024,
  "chester": 6494,
  "chestnut": 18287,
  "chet": 11733,
  "chet@@": 22340,
  "chev": 25472,
  "chev@@": 10880,
  "chevro@@": 30796,
  "chevrolet": 18135,
  "chew": 16127,
  "chew@@": 25990,
  "chewed": 16542,
  "chewing": 15039,
  "chey@@": 29560,
  "cheyenne": 18763,
  "chez": 27726,
  "chi": 3479,
  "chi@@": 2038,
  "chia": 25362,
  "chiang": 21418,
  "chiat@@": 31074,
  "chic@@": 9843,
  "chicago": 1714,
  "chick": 9316,
  "chick@@": 17006,
  "chicken": 4456,
  "chickens": 16865,
  "chicks": 14624,
  "chico": 25056,
  "chie": 27524,
  "chie@@": 29293,
  "chief": 937,
  "chief@@": 17997,
  "chiefly": 18334,
  "chiefs": 8897,
  "chiev@@": 29805,
  "chil@@": 8837,
  "child": 758,
  "child@@": 12619,
  "childhood": 4317,
  "childish": 19778,
  "childre@@": 29245,
  "children": 433,
  "chile": 7952,
  "chilean": 14748,
  "chili": 18289,
  "chill": 7610,
  "chill@@": 22237,
  "chilled": 23717,
  "chilling": 24958,
  "chilly": 21231,
  "chim@@": 8192,
  "chimney": 17450,
  "chin": 3350,
  "chin@@": 6724,
  "china": 1334,
  "chinatown": 22722,
  "chinese": 1388,
  "ching": 3739,
  "chinson": 31357,
  "chio": 20594,
  "chip": 6954,
  "chip@@": 23036,
  "chips": 9111,
  "chir@@": 13768,
  "chis@@": 19932,
  "chit@@": 13453,
  "chitt@@": 25244,
  "chloe": 6911,
  "chlor@@": 10089,
  "chloride": 20591,
  "chment": 27490,
  "cho": 8189,
  "cho@@": 4189,
  "choc@@": 23428,
  "chocol@@": 26896,
  "chocolate": 5605,
  "choi": 18970,
  "choice": 1497,
  "choices": 8039,
  "choir": 7076,
  "choke": 14661,
  "choked": 11268,
  "choking": 16226,
  "chol@@": 10532,
  "chom@@": 25081,
  "choo@@": 28554,
  "choose": 3119,
  "chooses": 15873,
  "choosing": 9664,
  "chop": 13611,
  "chop@@": 10689,
  "chopped": 22008,
  "chopper": 18846,
  "chor@@": 10039,
  "choral": 18603,
  "chord": 12622,
  "chords": 19984,
  "choreo@@": 19481,
  "choreographer": 22944,
  "choreography": 23062,
  "chores": 22830,
  "chorus": 8079,
  "chose": 3281,
  "chosen": 2683,
  "chou@@": 26262,
  "chow": 17557,
  "chow@@": 21379,
  "chri@@": 13585,
  "chris": 2457,
  "christ": 2539,
  "christ@@": 7073,
  "christchurch": 20087,
  "christi@@": 20641,
  "christian": 1489,
  "christian@@": 28322,
  "christianity": 7992,
  "christians": 7702,
  "christie": 14697,
  "christina": 12792,
  "christine": 10942,
  "christmas": 2059,
  "christop@@": 19780,
  "christopher": 5577,
  "christy": 22578,
  "chro@@": 10172,
  "chrome": 14633,
  "chromo@@": 20322,
  "chromosome": 19752,
  "chron@@": 9874,
  "chronic": 12655,
  "chronic@@": 19718,
  "chronicle": 10688,
  "chronicles": 14804,
  "chry@@": 16963,
  "chrysler": 19562,
  "chs": 16872,
  "cht": 25793,
  "chu": 10874,
  "chu@@": 4311,
  "chuan": 21943,
  "chuck": 5783,
  "chuck@@": 26979,
  "chuckle": 15261,
  "chuckled": 7904,
  "chuckles": 23304,
  "chum": 23900,
  "chum@@": 25068,
  "chun": 17999,
  "chun@@": 26925,
  "chung": 18999,
  "chunk": 19052,
  "chunks": 25258,
  "chur@@": 11883,
  "church": 438,
  "church@@": 27469,
  "churches": 4351,
  "churchill": 11558,
  "churchyard": 26719,
  "chus": 15497,
  "chy": 6913,
  "chy@@": 21967,
  "châ@@": 23861,
  "château": 18816,
  "ci": 6177,
  "ci@@": 1425,
  "cia": 4792,
  "cial": 27900,
  "cian": 16134,
  "cic@@": 13312,
  "cid": 19840,
  "cid@@": 16875,
  "cide": 28006,
  "cident": 30770,
  "cie": 15375,
  "cigar": 15720,
  "cigar@@": 26655,
  "cigarette": 7004,
  "cigarettes": 10776,
  "cil@@": 24800,
  "cim@@": 20967,
  "cin": 22653,
  "cin@@": 5812,
  "cincin@@": 30505,
  "cincinnati": 8137,
  "cinder@@": 29518,
  "cinderella": 23487,
  "cindy": 13584,
  "cinem@@": 29451,
  "cinema": 5704,
  "cinemas": 23154,
  "cinematic": 25213,
  "cinemato@@": 28965,
  "cinematographer": 27386,
  "cinematography": 24556,
  "cing": 10601,
  "cinnam@@": 29850,
  "cinnamon": 21298,
  "cio": 9485,
  "cir@@": 10472,
  "circa": 15876,
  "circle": 2990,
  "circled": 14815,
  "circles": 6826,
  "circling": 17854,
  "circu@@": 14155,
  "circuit": 4081,
  "circuits": 14379,
  "circul@@": 29414,
  "circular": 8144,
  "circulated": 20026,
  "circulating": 25369,
  "circulation": 9220,
  "circum@@": 10047,
  "circumst@@": 30913,
  "circumstance": 25664,
  "circumstances": 4609,
  "circus": 8408,
  "cis": 19123,
  "cis@@": 13724,
  "cise": 21060,
  "cit@@": 8993,
  "citadel": 16964,
  "citation": 16426,
  "cite": 20237,
  "cited": 6477,
  "cites": 20444,
  "citi@@": 28323,
  "cities": 2243,
  "citing": 9387,
  "citizen": 6080,
  "citizen@@": 29204,
  "citizens": 3294,
  "citizenship": 9687,
  "citrus": 24406,
  "city": 187,
  "city@@": 21166,
  "ciu@@": 27056,
  "civ@@": 19466,
  "civar": 35826,
  "civi@@": 29156,
  "civic": 8724,
  "civil": 1371,
  "civil@@": 14835,
  "civilian": 5933,
  "civilians": 8424,
  "civilization": 10197,
  "civilized": 20571,
  "ción": 25818,
  "ck": 3382,
  "ck@@": 3970,
  "cke": 26975,
  "cke@@": 23608,
  "cked": 16650,
  "cker": 10101,
  "cket": 27017,
  "ckey": 29277,
  "cking": 13004,
  "cks": 8667,
  "cky": 16947,
  "cl": 11243,
  "cl@@": 1788,
  "cla": 29005,
  "cla@@": 5432,
  "clad": 12500,
  "claim": 2671,
  "claim@@": 28380,
  "claimed": 2043,
  "claiming": 5537,
  "claims": 3034,
  "clair": 17628,
  "claire": 4302,
  "clam@@": 11149,
  "clamation": 21305,
  "clamp": 27391,
  "clamped": 19340,
  "clan": 5170,
  "clan@@": 23640,
  "clandest@@": 29830,
  "clandestine": 26904,
  "clans": 17025,
  "clap": 21752,
  "clap@@": 18012,
  "clapped": 18698,
  "clar@@": 8759,
  "clara": 9624,
  "clare": 12049,
  "clarence": 12543,
  "clari@@": 17508,
  "clarified": 22621,
  "clarify": 23998,
  "clarinet": 23045,
  "clarissa": 26806,
  "clarity": 15614,
  "clark": 4113,
  "clark@@": 28580,
  "clarke": 9231,
  "clarkson": 23206,
  "clary": 12361,
  "clas@@": 10796,
  "clash": 14046,
  "clashed": 24696,
  "clashes": 19758,
  "clasp": 26758,
  "clasped": 16858,
  "class": 676,
  "class@@": 30043,
  "classes": 2880,
  "classi@@": 11281,
  "classic": 3356,
  "classical": 3451,
  "classics": 12148,
  "classification": 6510,
  "classified": 5114,
  "classm@@": 42643,
  "classmate": 25643,
  "classmates": 19385,
  "classroom": 9406,
  "classrooms": 13955,
  "classy": 26065,
  "clat@@": 26263,
  "clau@@": 8891,
  "claude": 8651,
  "claudi@@": 27441,
  "claudia": 12985,
  "claus": 16822,
  "clause": 11748,
  "clave": 20727,
  "claw": 13046,
  "clawed": 23906,
  "claws": 9478,
  "clay": 4184,
  "clay@@": 23125,
  "clayton": 12695,
  "cle": 12507,
  "cle@@": 6652,
  "clea@@": 14616,
  "clean": 1855,
  "clean@@": 8751,
  "cleaned": 8735,
  "cleaner": 16315,
  "cleaning": 6465,
  "clear": 1009,
  "clear@@": 15426,
  "clearance": 13731,
  "cleared": 4346,
  "clearer": 22514,
  "clearing": 7412,
  "clearly": 2390,
  "clears": 25878,
  "cled": 27552,
  "clem@@": 9151,
  "clement": 14641,
  "clench": 27046,
  "clenched": 7570,
  "clenching": 24180,
  "cleop@@": 30318,
  "cleopatra": 26690,
  "cler@@": 10414,
  "clerg@@": 29168,
  "clergy": 12273,
  "clergyman": 26564,
  "clerical": 26468,
  "clerk": 7351,
  "cles": 14240,
  "clev@@": 28489,
  "cleveland": 5618,
  "clever": 7469,
  "cli@@": 5663,
  "clich@@": 23461,
  "click": 10202,
  "clicked": 13546,
  "clicking": 22625,
  "client": 4417,
  "clients": 5801,
  "cliff": 5862,
  "cliffe": 18364,
  "clifford": 17522,
  "cliffs": 14414,
  "clifton": 20378,
  "clim@@": 10884,
  "climate": 3981,
  "climax": 15646,
  "climb": 5463,
  "climbed": 5360,
  "climbing": 7146,
  "climbs": 20603,
  "clin@@": 8299,
  "cling": 18945,
  "clinging": 17983,
  "clinic": 7534,
  "clinical": 6478,
  "clinics": 20395,
  "clint": 17613,
  "clinton": 6987,
  "clip": 11816,
  "clipped": 20120,
  "clips": 16792,
  "clit": 18497,
  "clive": 16391,
  "clo@@": 3311,
  "cloak": 11080,
  "clock": 2870,
  "clock@@": 24821,
  "clocks": 21519,
  "clockwise": 23044,
  "clone": 16890,
  "clones": 25831,
  "close": 519,
  "closed": 905,
  "closely": 3636,
  "closer": 1645,
  "closes": 14001,
  "closest": 6491,
  "closet": 6704,
  "closing": 3996,
  "closure": 8446,
  "cloth": 6666,
  "clothed": 24759,
  "clothes": 1784,
  "clothing": 4705,
  "clou@@": 12419,
  "cloud": 4735,
  "clouds": 6586,
  "cloudy": 27309,
  "clown": 11985,
  "clowns": 26390,
  "clu@@": 4907,
  "club": 406,
  "club@@": 28655,
  "clubhouse": 24562,
  "clubs": 2829,
  "clue": 7008,
  "clues": 13438,
  "clum@@": 28395,
  "clumsy": 19311,
  "clung": 14406,
  "cluster": 9898,
  "clusters": 14651,
  "clut@@": 20207,
  "clutch": 15458,
  "clutched": 13450,
  "clutching": 14189,
  "cly@@": 23345,
  "clyde": 10830,
  "cm": 5112,
  "cm@@": 14401,
  "cn": 22177,
  "cn@@": 25071,
  "cnn": 14894,
  "co": 675,
  "co@@": 605,
  "coach": 1272,
  "coach@@": 26995,
  "coached": 9293,
  "coaches": 7709,
  "coaching": 7770,
  "coal": 4297,
  "coal@@": 16253,
  "coalition": 5628,
  "coarse": 22461,
  "coast": 1449,
  "coast@@": 25198,
  "coastal": 5187,
  "coaster": 16040,
  "coastline": 17115,
  "coasts": 23893,
  "coat": 3161,
  "coated": 15889,
  "coating": 20910,
  "coats": 12892,
  "cob@@": 11595,
  "cobb": 18996,
  "cobra": 17392,
  "coc@@": 17741,
  "coca": 19059,
  "cocaine": 12894,
  "cocc@@": 26739,
  "coch@@": 13827,
  "cock": 6023,
  "cock@@": 7873,
  "cocked": 12684,
  "cockpit": 14595,
  "cocks": 27234,
  "cocktail": 15477,
  "cocky": 21386,
  "coco": 20782,
  "coco@@": 23531,
  "cocoa": 22455,
  "cocon@@": 28589,
  "coconut": 16094,
  "cod": 19846,
  "cod@@": 27827,
  "code": 1893,
  "coded": 22544,
  "codes": 8792,
  "codex": 19597,
  "codi@@": 27094,
  "codic@@": 29682,
  "codice_@@": 10427,
  "coding": 18886,
  "cody": 12022,
  "coe": 19368,
  "coefficient": 23830,
  "coefficients": 26447,
  "coer@@": 18591,
  "coff@@": 11823,
  "coffee": 1629,
  "coffin": 11328,
  "cogn@@": 18081,
  "cognitive": 11397,
  "cohe@@": 24282,
  "cohen": 11004,
  "coher@@": 27784,
  "coherent": 17593,
  "coil": 17878,
  "coiled": 26119,
  "coin": 7502,
  "coinci@@": 25112,
  "coincid@@": 18382,
  "coincide": 22787,
  "coincided": 21031,
  "coincidence": 9789,
  "coined": 14430,
  "coins": 7105,
  "coke": 10482,
  "col": 9832,
  "col@@": 2920,
  "cola": 14290,
  "colby": 18374,
  "colchester": 24367,
  "cold": 1084,
  "cold@@": 20833,
  "colder": 20835,
  "coldly": 26366,
  "cole": 4203,
  "coleman": 13619,
  "coli": 19264,
  "coli@@": 28624,
  "colin": 6313,
  "coliseum": 21881,
  "coll@@": 3736,
  "collabor@@": 27957,
  "collaborate": 23741,
  "collaborated": 9018,
  "collaborating": 23473,
  "collaboration": 5589,
  "collaborations": 21159,
  "collaborative": 14763,
  "collaborator": 21843,
  "collaborators": 24563,
  "collap@@": 24257,
  "collapse": 6976,
  "collapsed": 6696,
  "collapsing": 23363,
  "collar": 7788,
  "collateral": 22468,
  "collea@@": 33302,
  "colleague": 9846,
  "colleagues": 7440,
  "collect": 5934,
  "collected": 4275,
  "collecting": 8494,
  "collection": 1691,
  "collections": 6264,
  "collective": 7114,
  "collectively": 14827,
  "collector": 10247,
  "collectors": 15860,
  "collects": 22329,
  "college": 422,
  "colleges": 6182,
  "collegi@@": 28025,
  "collegiate": 9743,
  "colli@@": 15868,
  "collided": 20245,
  "collier": 22815,
  "colliery": 24037,
  "collin": 25283,
  "colling@@": 25192,
  "collins": 6648,
  "collision": 13088,
  "collo@@": 27626,
  "colloqui@@": 24392,
  "colm": 29474,
  "coln": 32419,
  "coln@@": 29307,
  "colo": 20786,
  "colo@@": 13650,
  "cologne": 11892,
  "colom@@": 27595,
  "colombia": 9168,
  "colombian": 15885,
  "colombo": 20660,
  "colon": 25363,
  "colon@@": 7877,
  "colonel": 2519,
  "colonial": 4458,
  "colonies": 7951,
  "colonists": 16475,
  "colonization": 21941,
  "colony": 4718,
  "color": 1829,
  "color@@": 14688,
  "colorado": 4554,
  "colored": 5928,
  "colorful": 14063,
  "coloring": 23907,
  "colors": 4854,
  "colour": 5108,
  "colour@@": 28531,
  "coloured": 11815,
  "colourful": 26559,
  "colours": 8994,
  "cols": 31260,
  "colspan": 12687,
  "colt": 8526,
  "colton": 22091,
  "colts": 17070,
  "colum@@": 12407,
  "columbia": 3123,
  "columbus": 9517,
  "column": 5354,
  "columnist": 15735,
  "columns": 7584,
  "com": 2680,
  "com@@": 1857,
  "coma": 11266,
  "comb": 11532,
  "comb@@": 12869,
  "combat": 3139,
  "combat@@": 18913,
  "combe": 14341,
  "combination": 4064,
  "combinations": 16893,
  "combine": 11613,
  "combined": 2981,
  "combines": 15522,
  "combining": 12527,
  "combo": 27264,
  "combu@@": 28993,
  "combustion": 18795,
  "come": 115,
  "come@@": 20769,
  "comeback": 12980,
  "comedian": 11073,
  "comedic": 26003,
  "comedies": 25563,
  "comedy": 3057,
  "comes": 1018,
  "comet": 16338,
  "comfor@@": 14506,
  "comfort": 5576,
  "comfortable": 4055,
  "comfortably": 18810,
  "comforting": 14737,
  "comic": 4002,
  "comics": 5075,
  "coming": 432,
  "comm": 24034,
  "comm@@": 7593,
  "comman@@": 11322,
  "command": 1394,
  "commandant": 17428,
  "commanded": 5566,
  "commander": 1832,
  "commanders": 11973,
  "commanding": 7628,
  "commando": 17857,
  "commands": 10801,
  "commemor@@": 18489,
  "commemorate": 15811,
  "commemorated": 25907,
  "commemorating": 27308,
  "commemorative": 23945,
  "commenc@@": 31994,
  "commence": 22087,
  "commenced": 8336,
  "commencement": 26169,
  "commend@@": 22428,
  "comment": 6122,
  "comment@@": 22120,
  "commentary": 9647,
  "commentator": 15011,
  "commentators": 18532,
  "commented": 6525,
  "commenting": 17716,
  "comments": 7338,
  "commer@@": 30069,
  "commerce": 6123,
  "commerci@@": 26007,
  "commercial": 1805,
  "commercially": 11896,
  "commercials": 12974,
  "commis@@": 18814,
  "commission": 1776,
  "commission@@": 30581,
  "commissioned": 3799,
  "commissioner": 5039,
  "commissioners": 13757,
  "commissioning": 25221,
  "commissions": 14714,
  "commit": 8154,
  "commit@@": 29678,
  "commitment": 7529,
  "commitments": 19939,
  "committed": 3932,
  "committee": 1303,
  "committees": 9956,
  "committing": 16086,
  "commo@@": 27841,
  "commod@@": 37942,
  "commodities": 25696,
  "commodity": 21828,
  "commodore": 14557,
  "common": 922,
  "common@@": 14480,
  "commonly": 2913,
  "commons": 7796,
  "commonwealth": 5416,
  "commotion": 22482,
  "commu@@": 12092,
  "commun@@": 19094,
  "communal": 16610,
  "commune": 8963,
  "communi@@": 28963,
  "communic@@": 18934,
  "communicate": 9203,
  "communicated": 20682,
  "communicating": 20796,
  "communication": 3804,
  "communications": 3989,
  "communion": 17182,
  "communism": 16715,
  "communist": 3672,
  "communists": 12511,
  "communities": 3261,
  "community": 745,
  "commuter": 16754,
  "como": 22923,
  "como@@": 29114,
  "comp@@": 5228,
  "compact": 9640,
  "compan@@": 25827,
  "companies": 1760,
  "companion": 7121,
  "companions": 11962,
  "company": 293,
  "compar@@": 28851,
  "comparable": 12755,
  "comparative": 15711,
  "comparatively": 22914,
  "compare": 11356,
  "compared": 2715,
  "compares": 27289,
  "comparing": 14452,
  "comparison": 7505,
  "comparisons": 21721,
  "compart@@": 25076,
  "compartment": 14504,
  "compas@@": 24701,
  "compass": 16370,
  "compassion": 14248,
  "compati@@": 30045,
  "compatibility": 22665,
  "compatible": 10603,
  "compe@@": 30064,
  "compelled": 15123,
  "compelling": 18110,
  "compens@@": 20698,
  "compensate": 19156,
  "compensation": 9441,
  "compet@@": 17547,
  "compete": 4670,
  "competed": 3907,
  "competence": 19668,
  "competent": 18601,
  "competes": 17269,
  "competing": 6195,
  "competition": 1470,
  "competitions": 6409,
  "competitive": 6266,
  "competitor": 13900,
  "competitors": 10347,
  "compil@@": 24146,
  "compilation": 7241,
  "compiled": 9425,
  "compiling": 26505,
  "compl@@": 9818,
  "compla@@": 27576,
  "complain": 11797,
  "complained": 10092,
  "complaining": 13017,
  "complaint": 10068,
  "complaints": 9949,
  "complem@@": 26048,
  "complement": 15517,
  "complementary": 25378,
  "complet@@": 23950,
  "complete": 1438,
  "completed": 1353,
  "completely": 1306,
  "completing": 7295,
  "completion": 5990,
  "complex": 1907,
  "complex@@": 19532,
  "complexes": 17856,
  "complexity": 12836,
  "compli@@": 27635,
  "compliance": 14439,
  "complicated": 5317,
  "complications": 13764,
  "complim@@": 18281,
  "compliment": 13872,
  "compliments": 23220,
  "comply": 14652,
  "compo@@": 23767,
  "compon@@": 31170,
  "component": 6675,
  "components": 5697,
  "compos@@": 28160,
  "compose": 18422,
  "composed": 2471,
  "composer": 4361,
  "composers": 10833,
  "composing": 18850,
  "composite": 14342,
  "composition": 5175,
  "compositions": 10224,
  "composure": 24669,
  "compound": 6511,
  "compounds": 10742,
  "comprehen@@": 17017,
  "comprehend": 22029,
  "comprehensive": 7697,
  "compres@@": 21162,
  "compressed": 18186,
  "compression": 15574,
  "compri@@": 32246,
  "comprise": 17752,
  "comprised": 12354,
  "comprises": 9161,
  "comprising": 10462,
  "compromise": 10591,
  "compromised": 16455,
  "compromising": 26517,
  "compton": 21395,
  "compu@@": 8777,
  "compul@@": 17439,
  "compulsory": 16700,
  "computational": 19430,
  "computer": 1535,
  "computers": 6329,
  "computing": 10940,
  "comra@@": 30487,
  "comrade": 15212,
  "comrades": 16064,
  "con": 6694,
  "con@@": 733,
  "conan": 19453,
  "conc@@": 12549,
  "conce@@": 11869,
  "conceal": 19540,
  "concealed": 13915,
  "conceded": 17725,
  "concei@@": 23399,
  "conceived": 9579,
  "concentr@@": 28262,
  "concentrate": 7683,
  "concentrated": 7681,
  "concentrating": 16967,
  "concentration": 5893,
  "concentrations": 15836,
  "concep@@": 14861,
  "concept": 2855,
  "conception": 13146,
  "concepts": 8727,
  "conceptual": 20814,
  "concer@@": 14766,
  "concern": 3422,
  "concerned": 2944,
  "concerning": 6811,
  "concerns": 4858,
  "concert": 3069,
  "concerto": 16030,
  "concerts": 6433,
  "concession": 18188,
  "concessions": 23003,
  "conclu@@": 28994,
  "conclude": 17708,
  "concluded": 4691,
  "concludes": 16497,
  "concluding": 19473,
  "conclusion": 6280,
  "conclusions": 14847,
  "conclusive": 23957,
  "concor@@": 19402,
  "concord": 21677,
  "concrete": 4563,
  "concub@@": 25500,
  "concurrent": 19665,
  "concurrently": 20356,
  "concussion": 20801,
  "condem@@": 12758,
  "condemned": 10117,
  "conden@@": 15422,
  "conditi@@": 27825,
  "condition": 2886,
  "conditional": 16889,
  "conditioned": 23787,
  "conditioning": 14507,
  "conditions": 2361,
  "condo": 21372,
  "condol@@": 24772,
  "condom": 17509,
  "condoms": 22806,
  "condu@@": 20354,
  "conduc@@": 17227,
  "conduct": 5372,
  "conducted": 3056,
  "conducting": 8997,
  "conductor": 8743,
  "conductors": 25979,
  "conducts": 21824,
  "cone": 10412,
  "cones": 22025,
  "conf@@": 11237,
  "confeder@@": 20132,
  "confederacy": 20413,
  "confederate": 7870,
  "confederation": 13014,
  "conference": 1426,
  "conferences": 9919,
  "conferred": 18924,
  "confess": 11234,
  "confessed": 11905,
  "confesses": 24741,
  "confession": 9531,
  "confessions": 25658,
  "confi@@": 15733,
  "confid@@": 15190,
  "confidence": 5147,
  "confident": 7348,
  "confidential": 16357,
  "configur@@": 29991,
  "configuration": 10352,
  "configurations": 27099,
  "confin@@": 23383,
  "confined": 12291,
  "confinement": 22785,
  "confir@@": 29782,
  "confirm": 8886,
  "confirmation": 12970,
  "confirmed": 3043,
  "confirming": 20205,
  "confirms": 22395,
  "confisc@@": 27148,
  "confiscated": 17455,
  "conflic@@": 27840,
  "conflict": 3579,
  "conflicting": 21618,
  "conflicts": 9925,
  "conflu@@": 30072,
  "confluence": 16855,
  "conform": 27260,
  "confron@@": 18629,
  "confront": 13102,
  "confrontation": 13111,
  "confronted": 12355,
  "confronts": 18794,
  "confu@@": 16039,
  "confuse": 23323,
  "confused": 3572,
  "confusing": 13434,
  "confusion": 5585,
  "cong": 25824,
  "cong@@": 25649,
  "congestion": 23587,
  "conglomer@@": 29025,
  "conglomerate": 25650,
  "congo": 11800,
  "congrat@@": 31675,
  "congratul@@": 23107,
  "congratulate": 24588,
  "congratulations": 5522,
  "congre@@": 14140,
  "congreg@@": 28812,
  "congregation": 7591,
  "congregational": 25577,
  "congregations": 19875,
  "congress": 2263,
  "congressional": 8664,
  "congressman": 12689,
  "coni": 21257,
  "coni@@": 25053,
  "conj@@": 21668,
  "conjecture": 26934,
  "conju@@": 18865,
  "conjunction": 10291,
  "conn": 26609,
  "conn@@": 15789,
  "connec@@": 23281,
  "connect": 5623,
  "connect@@": 30537,
  "connected": 2518,
  "connecticut": 5607,
  "connecting": 6556,
  "connection": 2745,
  "connections": 6357,
  "connectivity": 26139,
  "connector": 23443,
  "connects": 8578,
  "connell": 15573,
  "conner": 17978,
  "connie": 14873,
  "conno@@": 28575,
  "connolly": 25847,
  "connor": 5484,
  "conor": 22487,
  "conqu@@": 17767,
  "conquer": 14562,
  "conquer@@": 24394,
  "conquered": 10753,
  "conquest": 8946,
  "conrad": 11295,
  "cons": 27532,
  "consci@@": 29171,
  "conscience": 10259,
  "conscious": 8419,
  "consciously": 16486,
  "consciousness": 6952,
  "consec@@": 20730,
  "consecrated": 14035,
  "consecu@@": 28835,
  "consecutive": 4662,
  "consen@@": 28650,
  "consensus": 11075,
  "consent": 8961,
  "consequ@@": 25096,
  "consequence": 9414,
  "consequences": 7215,
  "consequently": 8862,
  "conserv@@": 11600,
  "conservation": 5674,
  "conservative": 3640,
  "conservatives": 12983,
  "conservatory": 12817,
  "conserved": 24623,
  "consi@@": 28508,
  "consider": 3014,
  "consider@@": 27235,
  "considerable": 5315,
  "considerably": 9649,
  "consideration": 9133,
  "considerations": 20670,
  "considered": 884,
  "considering": 4514,
  "considers": 11020,
  "consist": 8875,
  "consist@@": 28674,
  "consisted": 4070,
  "consistency": 18566,
  "consistent": 7758,
  "consistently": 11125,
  "consisting": 4750,
  "consists": 2565,
  "consol@@": 27610,
  "consolation": 23821,
  "console": 9862,
  "consoles": 25792,
  "consoli@@": 20286,
  "consolidated": 11697,
  "consolidation": 20999,
  "conson@@": 29869,
  "consonant": 24395,
  "consonants": 24941,
  "consor@@": 29315,
  "consort": 15296,
  "consortium": 14110,
  "consp@@": 27916,
  "conspicu@@": 28976,
  "conspicuous": 19222,
  "conspir@@": 14639,
  "conspiracy": 8655,
  "const@@": 27661,
  "constable": 12916,
  "constance": 17827,
  "constant": 4294,
  "constant@@": 25726,
  "constantine": 14494,
  "constantino@@": 31350,
  "constantinople": 12944,
  "constantly": 6634,
  "constell@@": 28708,
  "constellation": 19346,
  "constitu@@": 10981,
  "constituencies": 15874,
  "constituency": 5509,
  "constituent": 15792,
  "constitute": 13303,
  "constituted": 11902,
  "constitutes": 20448,
  "constitution": 3512,
  "constitutional": 6272,
  "constra@@": 27615,
  "constraints": 17047,
  "constric@@": 22727,
  "construc@@": 15204,
  "construct": 8678,
  "constructed": 2548,
  "constructing": 16268,
  "construction": 1179,
  "constructions": 21934,
  "constructive": 25297,
  "consu@@": 15606,
  "consul": 13183,
  "consul@@": 11574,
  "consulate": 21564,
  "consult": 19086,
  "consultant": 9129,
  "consultants": 25938,
  "consultation": 18159,
  "consulted": 18528,
  "consulting": 10868,
  "consume": 16982,
  "consumed": 9750,
  "consumer": 7391,
  "consumers": 11203,
  "consuming": 15673,
  "consumption": 8546,
  "cont@@": 3928,
  "contact": 1876,
  "contacted": 10181,
  "contacts": 9006,
  "contag@@": 29253,
  "contagious": 26682,
  "contain": 4429,
  "contain@@": 29915,
  "contained": 3770,
  "container": 11300,
  "containers": 17393,
  "containing": 4227,
  "containment": 26506,
  "contains": 2225,
  "contam@@": 25925,
  "contaminated": 19448,
  "contamination": 20985,
  "contem@@": 27442,
  "contempl@@": 24711,
  "contemplated": 25437,
  "contemplating": 26462,
  "contempor@@": 27779,
  "contemporaries": 19369,
  "contemporary": 2936,
  "contempt": 16157,
  "contender": 22050,
  "content": 2901,
  "contention": 21600,
  "contents": 7978,
  "contest": 3927,
  "contest@@": 30175,
  "contestant": 13564,
  "contestants": 11314,
  "contested": 7583,
  "contests": 17372,
  "contex@@": 28467,
  "context": 5571,
  "contexts": 21915,
  "conti@@": 26553,
  "contin@@": 28715,
  "continent": 8289,
  "continental": 6331,
  "continents": 19673,
  "conting@@": 23866,
  "contingent": 17141,
  "continu@@": 18292,
  "continually": 15557,
  "continuation": 14373,
  "continue": 1731,
  "continued": 715,
  "continues": 3000,
  "continuing": 4768,
  "continuity": 14801,
  "continuous": 6788,
  "continuously": 11211,
  "continuum": 27093,
  "contr@@": 12023,
  "contra@@": 8638,
  "contrac@@": 18326,
  "contract": 1572,
  "contracted": 11043,
  "contracting": 24309,
  "contraction": 24625,
  "contractor": 13717,
  "contractors": 17606,
  "contracts": 7729,
  "contradic@@": 14145,
  "contrary": 8715,
  "contrast": 4844,
  "contrasted": 25454,
  "contrasting": 26470,
  "contribu@@": 29740,
  "contribute": 9022,
  "contributed": 4426,
  "contributes": 20089,
  "contributing": 8369,
  "contribution": 6819,
  "contributions": 5824,
  "contributor": 14765,
  "contributors": 20668,
  "contro@@": 29489,
  "control": 602,
  "controll@@": 29164,
  "controlled": 3426,
  "controller": 12340,
  "controllers": 23930,
  "controlling": 8982,
  "controls": 6863,
  "controversi@@": 21324,
  "controversial": 6119,
  "controversy": 6148,
  "conv@@": 25692,
  "conve@@": 17791,
  "convection": 27008,
  "conven@@": 23535,
  "convened": 20483,
  "conveni@@": 23010,
  "convenience": 11950,
  "convenient": 10099,
  "convent": 10720,
  "conventi@@": 28288,
  "convention": 3662,
  "conventional": 7096,
  "conventions": 13712,
  "conver@@": 8518,
  "convergence": 23937,
  "convers@@": 27677,
  "conversation": 2435,
  "conversations": 10957,
  "converse": 26897,
  "conversely": 22016,
  "conversion": 7512,
  "convert": 10473,
  "converted": 4188,
  "convertible": 23606,
  "converting": 18239,
  "converts": 22849,
  "convex": 22483,
  "convey": 17244,
  "conveyed": 24809,
  "convic@@": 30516,
  "convict": 19527,
  "convicted": 7419,
  "conviction": 10323,
  "convictions": 20996,
  "convicts": 26723,
  "convin@@": 28618,
  "convince": 5668,
  "convinced": 4437,
  "convinces": 20844,
  "convincing": 11146,
  "convoy": 8980,
  "convoys": 25764,
  "convul@@": 22166,
  "conway": 17452,
  "coo@@": 7107,
  "cook": 3691,
  "cook@@": 16979,
  "cooke": 21211,
  "cooked": 10045,
  "cookie": 12756,
  "cookies": 11741,
  "cooking": 5994,
  "cooks": 24047,
  "cool": 1430,
  "cool@@": 13797,
  "cooled": 15622,
  "cooler": 12845,
  "cooling": 11837,
  "coon": 17690,
  "coop": 18667,
  "cooper": 5252,
  "cooper@@": 12683,
  "cooperate": 13648,
  "cooperation": 6431,
  "cooperative": 11680,
  "coordin@@": 29342,
  "coordinate": 14115,
  "coordinated": 14731,
  "coordinates": 10605,
  "coordinating": 23051,
  "coordination": 14542,
  "coordinator": 12491,
  "cop": 3814,
  "cop@@": 7421,
  "copa": 15095,
  "cope": 10466,
  "copen@@": 30439,
  "copenhagen": 10751,
  "copied": 15588,
  "copies": 3837,
  "coping": 26181,
  "copp@@": 26785,
  "copper": 6162,
  "cops": 4099,
  "copy": 3795,
  "copy@@": 17623,
  "copying": 23846,
  "copyright": 9792,
  "cor": 21370,
  "cor@@": 1012,
  "cora": 15970,
  "coral": 11866,
  "cord": 9807,
  "cords": 25755,
  "core": 3008,
  "corey": 20636,
  "corin@@": 12420,
  "cork": 8996,
  "corn": 7667,
  "corn@@": 8434,
  "cornelius": 21058,
  "cornell": 12483,
  "corner": 1606,
  "corner@@": 27185,
  "cornered": 24321,
  "corners": 7680,
  "cornerstone": 26694,
  "cornish": 21972,
  "cornwall": 11821,
  "coron@@": 19994,
  "corona": 27307,
  "coronation": 13858,
  "coroner": 18922,
  "corp": 12409,
  "corpor@@": 27921,
  "corporal": 12979,
  "corporate": 5195,
  "corporation": 2699,
  "corporations": 11956,
  "corps": 2447,
  "corpse": 9280,
  "corpses": 16272,
  "corpus": 16257,
  "correc@@": 17830,
  "correct": 3703,
  "corrected": 11929,
  "correction": 19472,
  "correctional": 24031,
  "corrections": 23892,
  "correctly": 10276,
  "correlation": 19167,
  "correspon@@": 18039,
  "correspond": 19742,
  "correspondence": 12089,
  "correspondent": 12627,
  "corresponding": 8203,
  "corresponds": 17250,
  "corri@@": 24751,
  "corrid@@": 34328,
  "corridor": 6007,
  "corridors": 18351,
  "corro@@": 14545,
  "corrup@@": 28154,
  "corrupt": 12401,
  "corrupted": 25169,
  "corruption": 7501,
  "cortex": 18847,
  "corv@@": 29143,
  "corvette": 26676,
  "cory": 19259,
  "cos": 7748,
  "cos@@": 15930,
  "cosm@@": 23272,
  "cosmetics": 27313,
  "cosmic": 15734,
  "cosmo@@": 13883,
  "cosmos": 23629,
  "coss@@": 20988,
  "cost": 1686,
  "cost@@": 16395,
  "costa": 8147,
  "costello": 25011,
  "costing": 22436,
  "costly": 18216,
  "costs": 4059,
  "costu@@": 28428,
  "costume": 7862,
  "costumes": 12080,
  "cot": 13239,
  "cot@@": 23027,
  "cote": 25913,
  "cott": 17657,
  "cott@@": 16744,
  "cottage": 8753,
  "cottages": 22594,
  "cotton": 5529,
  "cou@@": 4964,
  "couch": 4503,
  "cough": 15607,
  "cough@@": 28486,
  "coughed": 18446,
  "coughing": 20654,
  "coul@@": 12038,
  "could": 107,
  "couldn": 408,
  "coun@@": 10809,
  "counc@@": 32888,
  "counci@@": 33730,
  "council": 762,
  "council@@": 15338,
  "councill@@": 36121,
  "councillor": 14225,
  "councillors": 16147,
  "councils": 12024,
  "counsel": 8553,
  "counsel@@": 27776,
  "counseling": 17871,
  "counselor": 13445,
  "count": 2012,
  "count@@": 28804,
  "countdown": 18908,
  "counted": 7442,
  "counter": 3225,
  "counter@@": 6102,
  "countered": 18577,
  "counterfe@@": 23459,
  "counterpart": 15206,
  "counterparts": 16193,
  "counters": 26515,
  "countess": 11840,
  "counties": 5279,
  "counting": 7039,
  "countless": 13839,
  "countries": 1478,
  "country": 544,
  "country@@": 24166,
  "countryside": 10508,
  "counts": 6549,
  "county": 428,
  "coup": 8075,
  "coup@@": 27248,
  "coupe": 24260,
  "couple": 1013,
  "coupled": 12016,
  "couples": 4770,
  "coupling": 23397,
  "cour@@": 5901,
  "coura@@": 29962,
  "courage": 6373,
  "courageous": 25713,
  "courier": 18628,
  "course": 371,
  "courses": 4480,
  "court": 617,
  "court@@": 17773,
  "courtesy": 12942,
  "courthouse": 10846,
  "courtney": 14108,
  "courtroom": 18040,
  "courts": 4650,
  "courty@@": 29090,
  "courtyard": 9785,
  "cous@@": 30020,
  "cousin": 3493,
  "cousins": 11367,
  "cov@@": 16438,
  "cove": 12896,
  "coven": 25182,
  "coven@@": 28277,
  "covenant": 17858,
  "coventry": 16403,
  "cover": 1311,
  "cover@@": 15318,
  "coverage": 5748,
  "covered": 1442,
  "covering": 3940,
  "covers": 3393,
  "covert": 19820,
  "cow": 7726,
  "cow@@": 5554,
  "cowar@@": 20535,
  "coward": 10476,
  "cowboy": 10088,
  "cowboys": 11887,
  "cows": 14062,
  "cox": 8713,
  "coy": 27910,
  "coyo@@": 26295,
  "coyote": 21771,
  "cozy": 21896,
  "cp": 11408,
  "cp@@": 18809,
  "cpu": 21729,
  "cr": 9017,
  "cr@@": 2327,
  "cra": 27081,
  "cra@@": 3012,
  "crab": 16222,
  "crabs": 25525,
  "crack": 5679,
  "crack@@": 10282,
  "cracked": 7902,
  "cracker": 23560,
  "crackers": 25618,
  "cracking": 14053,
  "cracks": 14397,
  "cradle": 19249,
  "cradled": 25429,
  "craf@@": 20699,
  "craft": 5568,
  "craft@@": 25222,
  "crafted": 19934,
  "crafts": 15542,
  "craig": 6603,
  "cram@@": 14096,
  "cramped": 22603,
  "cran@@": 5892,
  "crane": 10187,
  "crank": 24744,
  "crap": 4276,
  "crappy": 25762,
  "crash": 4167,
  "crashed": 7221,
  "crashes": 20488,
  "crashing": 11583,
  "crate": 22978,
  "crater": 11846,
  "crates": 15721,
  "craved": 26410,
  "craven": 25087,
  "craving": 24992,
  "craw@@": 14036,
  "crawford": 11534,
  "crawl": 11213,
  "crawled": 11556,
  "crawling": 13249,
  "crazed": 27399,
  "crazy": 1200,
  "cre@@": 1914,
  "cream": 4366,
  "creamy": 26724,
  "create": 1774,
  "created": 814,
  "creates": 8760,
  "creating": 3323,
  "creation": 3227,
  "creations": 23099,
  "creative": 4759,
  "creativity": 16929,
  "creator": 8716,
  "creators": 19991,
  "creature": 4646,
  "creatures": 5744,
  "cred@@": 19787,
  "credentials": 22488,
  "credi@@": 30214,
  "credibility": 21509,
  "credible": 24529,
  "credit": 3085,
  "credited": 5165,
  "creditors": 26813,
  "credits": 6624,
  "creed": 18184,
  "creek": 2485,
  "creep": 15026,
  "creeping": 17786,
  "creeps": 26227,
  "creepy": 11427,
  "creole": 26324,
  "crept": 12879,
  "crescent": 14962,
  "crest": 10501,
  "cretac@@": 33852,
  "cretaceous": 23228,
  "crete": 21439,
  "crew": 1949,
  "crew@@": 18445,
  "crewe": 26876,
  "crews": 10111,
  "cri@@": 4355,
  "crib": 26935,
  "crick@@": 27493,
  "cricket": 3659,
  "cricketer": 11801,
  "cried": 4600,
  "cries": 11241,
  "crim@@": 29582,
  "crime": 2025,
  "crimea": 26886,
  "crimean": 24888,
  "crimes": 5714,
  "crimin@@": 13873,
  "criminal": 3091,
  "criminals": 9501,
  "crimson": 11366,
  "cringed": 23630,
  "crip@@": 27918,
  "crippled": 22318,
  "crisis": 4128,
  "crisp": 15765,
  "crist@@": 20191,
  "cristina": 25747,
  "crit@@": 27763,
  "criter@@": 30340,
  "criteria": 9712,
  "criterion": 23944,
  "criti@@": 26836,
  "critic": 5851,
  "critic@@": 28153,
  "critical": 2877,
  "critically": 11791,
  "critici@@": 19196,
  "criticised": 11487,
  "criticism": 5690,
  "criticisms": 23142,
  "criticized": 5923,
  "criticizing": 24347,
  "critics": 3424,
  "critique": 20168,
  "cro@@": 3122,
  "croati@@": 30534,
  "croatia": 9506,
  "croatian": 9270,
  "crock@@": 25172,
  "crocod@@": 27821,
  "crocodile": 22598,
  "croft": 14676,
  "croix": 26205,
  "crom@@": 25178,
  "cromwell": 18859,
  "cron@@": 13821,
  "croo@@": 28067,
  "crook": 17545,
  "crooked": 14524,
  "crop": 9477,
  "crops": 7998,
  "cros@@": 23387,
  "crosby": 17426,
  "cross": 1212,
  "cross@@": 8045,
  "crossed": 2922,
  "crosses": 7370,
  "crossing": 4034,
  "crossings": 25215,
  "crosso@@": 29771,
  "crossover": 19392,
  "crossroads": 19337,
  "crotch": 26794,
  "crou@@": 20171,
  "crouch": 24337,
  "crouched": 14367,
  "crow": 10393,
  "crow@@": 11582,
  "crowd": 2538,
  "crowded": 8784,
  "crowding": 25843,
  "crowds": 12242,
  "crowley": 21710,
  "crown": 3148,
  "crowned": 10876,
  "crowns": 25939,
  "crows": 21241,
  "croydon": 27037,
  "cru@@": 4283,
  "cruci@@": 9342,
  "crucial": 9617,
  "crude": 13558,
  "cruel": 7777,
  "cruel@@": 29736,
  "cruelty": 18293,
  "cruise": 8231,
  "cruiser": 10812,
  "cruisers": 18500,
  "cruising": 23303,
  "crum@@": 10170,
  "crumbling": 25278,
  "crumpled": 20583,
  "crun@@": 17350,
  "crunch": 22081,
  "crusad@@": 19756,
  "crusade": 17768,
  "crusaders": 22358,
  "crush": 7835,
  "crushed": 8908,
  "crushing": 13793,
  "crust": 19270,
  "cruz": 8848,
  "cry": 2796,
  "cry@@": 19218,
  "crying": 3839,
  "cryp@@": 15047,
  "crypt": 22365,
  "crypto@@": 18480,
  "cryst@@": 30122,
  "crystal": 4851,
  "crystall@@": 22009,
  "crystalline": 26882,
  "crystals": 14638,
  "cs": 5595,
  "cs@@": 19020,
  "ct": 11501,
  "ctu@@": 28630,
  "cu": 14583,
  "cu@@": 1201,
  "cub": 22596,
  "cub@@": 18672,
  "cuba": 7417,
  "cuban": 9893,
  "cube": 14104,
  "cubic": 17697,
  "cubs": 13656,
  "cuck@@": 21701,
  "cue": 12288,
  "cues": 25246,
  "cuff": 18265,
  "cuffed": 24820,
  "cuffs": 20408,
  "cuis@@": 28996,
  "cuisine": 13658,
  "cul@@": 5231,
  "cular": 21375,
  "culars": 27411,
  "culin@@": 30807,
  "culinary": 23380,
  "cull@@": 17330,
  "cullen": 22242,
  "culmin@@": 24040,
  "culminated": 19232,
  "culminating": 19226,
  "culo@@": 29951,
  "culosis": 33257,
  "culpr@@": 29422,
  "culprit": 26231,
  "cult": 7307,
  "cultiv@@": 13701,
  "cultivated": 14346,
  "cultivation": 15142,
  "cultural": 2138,
  "culturally": 23662,
  "culture": 1734,
  "cultures": 8246,
  "cum": 12065,
  "cum@@": 9210,
  "cumberland": 14264,
  "cummings": 27389,
  "cumul@@": 20957,
  "cun@@": 13187,
  "cunn@@": 29205,
  "cunning": 20919,
  "cunningham": 16281,
  "cunt": 18912,
  "cup": 766,
  "cup@@": 16313,
  "cupboard": 21427,
  "cupped": 13507,
  "cupping": 26045,
  "cups": 9086,
  "cur": 24873,
  "cur@@": 2941,
  "curated": 26926,
  "curator": 14345,
  "curb": 13399,
  "cure": 6691,
  "cured": 13361,
  "curfew": 25380,
  "curi@@": 17868,
  "curiosity": 9116,
  "curious": 5332,
  "curiously": 17118,
  "curl": 15207,
  "curled": 7171,
  "curling": 12139,
  "curls": 14257,
  "curly": 16447,
  "curr@@": 21111,
  "curran": 22896,
  "currency": 8179,
  "current": 1169,
  "currently": 1262,
  "currents": 15549,
  "curricul@@": 28533,
  "curriculum": 9051,
  "curry": 15395,
  "curse": 5991,
  "cursed": 8641,
  "curses": 23516,
  "cursing": 19401,
  "curt": 22485,
  "curtain": 9795,
  "curtains": 12909,
  "curtis": 9273,
  "curve": 6854,
  "curved": 8981,
  "curves": 10494,
  "curving": 23854,
  "cus": 10752,
  "cushi@@": 20949,
  "cushion": 22306,
  "cussion": 30872,
  "cust@@": 27941,
  "custo@@": 26556,
  "custody": 7272,
  "custom": 7219,
  "custom@@": 15710,
  "customary": 17104,
  "customer": 6554,
  "customers": 4725,
  "customs": 7763,
  "cut": 811,
  "cut@@": 8943,
  "cute": 4133,
  "cuth@@": 26072,
  "cuts": 6028,
  "cutter": 15249,
  "cutting": 4561,
  "cv": 25983,
  "cw": 12966,
  "cw@@": 23678,
  "cy": 6848,
  "cy@@": 3117,
  "cyber": 18442,
  "cyber@@": 11716,
  "cyc@@": 29088,
  "cycl@@": 18578,
  "cycle": 4552,
  "cycles": 13689,
  "cycli@@": 29759,
  "cyclic": 26742,
  "cycling": 11718,
  "cyclist": 25316,
  "cyclists": 23757,
  "cyclo@@": 15051,
  "cyclone": 11630,
  "cyclones": 27191,
  "cylin@@": 30324,
  "cylinder": 8304,
  "cylinders": 21270,
  "cylindr@@": 31023,
  "cylindrical": 22226,
  "cyn@@": 27579,
  "cynical": 24730,
  "cynthia": 16017,
  "cyp@@": 28958,
  "cypress": 27373,
  "cypri@@": 28271,
  "cypriot": 23847,
  "cyprus": 11462,
  "cyri@@": 25072,
  "cyril": 19888,
  "cyrus": 15398,
  "cyto@@": 12940,
  "cz": 25980,
  "cz@@": 8296,
  "czech": 6471,
  "czecho@@": 24624,
  "czechoslovakia": 15388,
  "cá@@": 25689,
  "cé@@": 14128,
  "cór@@": 25654,
  "cô@@": 24105,
  "d": 85,
  "d@@": 269,
  "da": 782,
  "da@@": 1218,
  "dab@@": 13053,
  "dac@@": 23614,
  "dad": 614,
  "dad@@": 18714,
  "daddy": 2650,
  "dade": 24485,
  "dae": 5986,
  "daemon": 12307,
  "dag": 25405,
  "dag@@": 8357,
  "dagger": 9654,
  "daggers": 25276,
  "dah": 15565,
  "dah@@": 18498,
  "dahl": 22129,
  "dai": 12446,
  "dai@@": 14805,
  "daily": 2321,
  "daim@@": 15870,
  "dain": 28880,
  "dairy": 12331,
  "daisy": 8665,
  "dak": 17918,
  "dakota": 8107,
  "dal": 5971,
  "dal@@": 4048,
  "dale": 3357,
  "dall": 22906,
  "dall@@": 17280,
  "dallas": 5029,
  "dalmati@@": 27074,
  "dalton": 12460,
  "daly": 23022,
  "dam": 4216,
  "dam@@": 3885,
  "damage": 2317,
  "damaged": 4451,
  "damages": 13126,
  "damaging": 15891,
  "damas@@": 29996,
  "damascus": 17886,
  "dame": 8459,
  "damian": 24018,
  "damien": 11893,
  "dammit": 12367,
  "damn": 1108,
  "damned": 7044,
  "damon": 9823,
  "damp": 9670,
  "dams": 16433,
  "dan": 2604,
  "dan@@": 2672,
  "dana": 9400,
  "danc@@": 25384,
  "dance": 1217,
  "danced": 9655,
  "dancer": 7206,
  "dancers": 10302,
  "dances": 11202,
  "dancing": 3576,
  "dand@@": 20614,
  "dane": 12027,
  "dang": 18027,
  "dang@@": 15513,
  "danger": 3166,
  "danger@@": 29233,
  "dangerous": 2161,
  "dangerously": 20909,
  "dangers": 17352,
  "dangling": 18957,
  "dani": 14822,
  "dani@@": 12838,
  "daniel": 2405,
  "danielle": 18379,
  "daniels": 13749,
  "danish": 5631,
  "danny": 3902,
  "dant": 27870,
  "dante": 8640,
  "danu@@": 29103,
  "danube": 19242,
  "daph@@": 29741,
  "daphne": 15113,
  "dar": 6602,
  "dar@@": 1921,
  "dara": 22113,
  "darcy": 16576,
  "dare": 3574,
  "dared": 13637,
  "dari@@": 26937,
  "daries": 30492,
  "darin": 28800,
  "daring": 14865,
  "darius": 14975,
  "dark": 719,
  "dark@@": 9570,
  "darkened": 13825,
  "darker": 9771,
  "darkest": 22508,
  "darkness": 3137,
  "darling": 3402,
  "darlington": 25655,
  "darn": 19364,
  "darren": 12682,
  "darryl": 22270,
  "dart": 15159,
  "dart@@": 18868,
  "darted": 14277,
  "darting": 26465,
  "dartmouth": 20305,
  "darts": 18131,
  "darwin": 12358,
  "daryl": 24695,
  "das": 7093,
  "das@@": 13859,
  "dash": 10480,
  "dash@@": 27538,
  "dashboard": 27086,
  "dashed": 18815,
  "dat": 16810,
  "dat@@": 9221,
  "data": 1419,
  "datab@@": 30259,
  "database": 7859,
  "databases": 22057,
  "date": 1036,
  "dated": 3957,
  "dates": 3566,
  "dating": 3151,
  "dation": 13527,
  "dations": 25622,
  "dau@@": 11752,
  "daugh@@": 28852,
  "daughter": 723,
  "daughters": 5166,
  "dav@@": 22971,
  "dave": 3914,
  "daven@@": 29984,
  "davenport": 19467,
  "davey": 22356,
  "davi@@": 12393,
  "david": 924,
  "davidson": 14407,
  "davies": 10506,
  "davis": 3690,
  "davy": 24882,
  "daw@@": 10179,
  "dawn": 4832,
  "dawson": 11059,
  "dax": 24626,
  "day": 172,
  "day@@": 6538,
  "daylight": 10149,
  "days": 388,
  "daytime": 12447,
  "dayton": 17520,
  "daytona": 21342,
  "dazed": 20375,
  "db": 14872,
  "dc": 4515,
  "dd": 7144,
  "dd@@": 3660,
  "dda": 24678,
  "dded": 9657,
  "dden": 12208,
  "dder": 15625,
  "ddie": 28558,
  "ddin": 13555,
  "dding": 7733,
  "ddings": 29169,
  "ddle": 10633,
  "ddled": 12498,
  "ddler": 17453,
  "ddles": 17192,
  "ddling": 12512,
  "ddy": 8975,
  "de": 246,
  "de@@": 467,
  "dea": 12975,
  "dea@@": 11631,
  "deacon": 12528,
  "dead": 515,
  "dead@@": 9861,
  "deadline": 14252,
  "deadly": 8003,
  "deaf": 9694,
  "deaf@@": 22962,
  "deal": 815,
  "deal@@": 22411,
  "dealer": 8668,
  "dealers": 14869,
  "dealing": 4900,
  "dealings": 24219,
  "deals": 8094,
  "dealt": 8280,
  "dean": 2840,
  "dear": 1763,
  "dear@@": 25758,
  "dearest": 23078,
  "dearly": 27128,
  "death": 394,
  "death@@": 18675,
  "deaths": 5693,
  "deau": 20509,
  "deaux": 29211,
  "deb": 23848,
  "deb@@": 12815,
  "debate": 4972,
  "debated": 16564,
  "debates": 16149,
  "debating": 22370,
  "debbie": 13875,
  "debor@@": 30059,
  "deborah": 19730,
  "debris": 11130,
  "debt": 5388,
  "debts": 12276,
  "debu@@": 13068,
  "debut": 1329,
  "debuted": 5597,
  "dec": 15471,
  "dec@@": 2311,
  "decad@@": 26343,
  "decade": 4497,
  "decades": 3991,
  "decap@@": 25259,
  "decay": 13660,
  "dece@@": 26773,
  "deceased": 10093,
  "deceived": 26393,
  "december": 549,
  "decency": 25357,
  "decent": 6898,
  "decep@@": 18309,
  "deception": 17745,
  "deci@@": 9038,
  "decide": 3199,
  "decided": 874,
  "decides": 6109,
  "deciding": 10154,
  "deciduous": 27025,
  "decim@@": 17176,
  "decision": 1434,
  "decisions": 5174,
  "decisive": 12644,
  "deck": 4094,
  "decker": 19141,
  "decks": 19657,
  "decl@@": 29247,
  "declan": 16188,
  "declar@@": 27529,
  "declaration": 8010,
  "declare": 12541,
  "declared": 2891,
  "declares": 22089,
  "declaring": 14556,
  "decline": 5981,
  "declined": 5743,
  "declining": 15624,
  "deco": 24155,
  "deco@@": 20306,
  "decom@@": 14586,
  "decommissioned": 18786,
  "decomposition": 26448,
  "decon@@": 26388,
  "decor@@": 23175,
  "decorate": 25905,
  "decorated": 6829,
  "decorating": 26680,
  "decoration": 12605,
  "decorations": 15693,
  "decorative": 12698,
  "decre@@": 27842,
  "decreas@@": 32758,
  "decrease": 10404,
  "decreased": 11223,
  "decreases": 20992,
  "decreasing": 19622,
  "decree": 10385,
  "ded": 1673,
  "dedic@@": 19643,
  "dedicated": 2962,
  "dedication": 12952,
  "dedly": 15938,
  "dee": 6458,
  "dee@@": 21514,
  "deed": 12822,
  "deeds": 13842,
  "deem": 23875,
  "deem@@": 27634,
  "deemed": 7814,
  "deen": 27611,
  "deep": 890,
  "deep@@": 12193,
  "deepened": 21573,
  "deeper": 5255,
  "deepest": 16883,
  "deeply": 4666,
  "deer": 7415,
  "def": 21996,
  "def@@": 4371,
  "default": 14221,
  "defe@@": 29549,
  "defeat": 2655,
  "defeated": 1838,
  "defeating": 6084,
  "defeats": 16080,
  "defect": 22334,
  "defects": 21697,
  "defen@@": 15707,
  "defence": 3856,
  "defences": 18355,
  "defend": 5143,
  "defend@@": 30411,
  "defendant": 11668,
  "defendants": 18075,
  "defended": 7480,
  "defender": 9495,
  "defenders": 13050,
  "defending": 6680,
  "defense": 2013,
  "defenses": 13219,
  "defensive": 4693,
  "defi@@": 17991,
  "defiance": 20784,
  "defic@@": 28334,
  "deficiency": 20809,
  "deficit": 16365,
  "defin@@": 27097,
  "define": 8635,
  "defined": 3202,
  "defines": 12662,
  "defining": 13602,
  "definite": 11693,
  "definitely": 2451,
  "definition": 5399,
  "definitions": 17584,
  "definitive": 17803,
  "defl@@": 11805,
  "defunct": 13991,
  "degra@@": 24482,
  "degradation": 19353,
  "degre@@": 30104,
  "degree": 1405,
  "degrees": 4142,
  "dehydr@@": 25349,
  "dei": 17938,
  "deities": 18925,
  "deity": 13651,
  "dek": 19608,
  "del": 2431,
  "del@@": 2081,
  "dela": 24121,
  "delaney": 24684,
  "delaware": 8905,
  "delay": 7230,
  "delayed": 7688,
  "delays": 15448,
  "deleg@@": 21586,
  "delegate": 13191,
  "delegates": 10843,
  "delegation": 11337,
  "delete": 26540,
  "deleted": 18803,
  "delhi": 6635,
  "deli@@": 15175,
  "delia": 18905,
  "deliber@@": 21634,
  "deliberate": 15264,
  "deliberately": 8936,
  "delic@@": 15937,
  "delicate": 8269,
  "delicious": 7286,
  "delight": 11608,
  "delighted": 11862,
  "delightful": 20222,
  "delilah": 23117,
  "delinqu@@": 27429,
  "deliri@@": 23512,
  "deliver": 5653,
  "deliver@@": 28148,
  "delivered": 4091,
  "deliveries": 23156,
  "delivering": 12086,
  "delivers": 19689,
  "delivery": 5469,
  "dell": 8823,
  "dell@@": 23365,
  "della": 8762,
  "delta": 6743,
  "delu@@": 10855,
  "deluxe": 19709,
  "dem": 15984,
  "dem@@": 3055,
  "deman@@": 29109,
  "demand": 3769,
  "demanded": 4464,
  "demanding": 8642,
  "demands": 6354,
  "demeanor": 18180,
  "demet@@": 17456,
  "demise": 14172,
  "demo": 11341,
  "demo@@": 12538,
  "democ@@": 28724,
  "democr@@": 27592,
  "democracy": 6780,
  "democrat": 8141,
  "democratic": 2365,
  "democrats": 8131,
  "demographic": 18057,
  "demoiselle": 30573,
  "demoli@@": 29070,
  "demolished": 7315,
  "demolition": 13607,
  "demon": 3942,
  "demon@@": 23159,
  "demonic": 23425,
  "demons": 6336,
  "demonstr@@": 21365,
  "demonstrate": 10577,
  "demonstrated": 7356,
  "demonstrates": 20063,
  "demonstrating": 16617,
  "demonstration": 10087,
  "demonstrations": 14770,
  "demos": 20975,
  "demp@@": 25653,
  "den": 1655,
  "den@@": 2050,
  "dena": 24952,
  "denburg": 24962,
  "dence": 18299,
  "dend@@": 19338,
  "dened": 21126,
  "denial": 14291,
  "denied": 5240,
  "denies": 24240,
  "denis": 14640,
  "denise": 14061,
  "denmark": 5830,
  "dennis": 6504,
  "denny": 13028,
  "deno@@": 21798,
  "denom@@": 29504,
  "denomin@@": 23562,
  "denomination": 20472,
  "denominations": 19839,
  "denote": 23216,
  "denoted": 23316,
  "denotes": 21924,
  "denounced": 19786,
  "dens": 15021,
  "dense": 8811,
  "densely": 22492,
  "density": 3007,
  "dent": 7389,
  "dent@@": 20903,
  "dental": 11565,
  "denti@@": 21961,
  "dentist": 17533,
  "denton": 27160,
  "dents": 19867,
  "denver": 7521,
  "deny": 7064,
  "denying": 14927,
  "deo": 21839,
  "deon": 25313,
  "dep@@": 12403,
  "depart": 18911,
  "depart@@": 15236,
  "departed": 7092,
  "departing": 17297,
  "department": 883,
  "departments": 7721,
  "departure": 5865,
  "depend": 11022,
  "depend@@": 14464,
  "depended": 17612,
  "dependence": 19947,
  "dependent": 7369,
  "depending": 4919,
  "depends": 5897,
  "depic@@": 32720,
  "depict": 20053,
  "depicted": 8456,
  "depicting": 12142,
  "depiction": 18668,
  "depictions": 24489,
  "depicts": 12791,
  "depl@@": 21794,
  "depleted": 24453,
  "deplo@@": 27768,
  "deploy": 20717,
  "deploy@@": 28051,
  "deployed": 6762,
  "deployment": 11159,
  "depo@@": 27899,
  "depor@@": 23163,
  "deported": 18711,
  "depos@@": 27509,
  "deposed": 20995,
  "deposit": 10891,
  "deposited": 15168,
  "deposition": 20503,
  "deposits": 10389,
  "depot": 8738,
  "depres@@": 15776,
  "depressed": 11167,
  "depressing": 21854,
  "depression": 5209,
  "depri@@": 27724,
  "deprived": 18929,
  "dept": 21635,
  "depth": 5287,
  "depths": 11324,
  "depu@@": 27851,
  "deputies": 13001,
  "deputy": 3173,
  "der": 1282,
  "der@@": 1503,
  "dera": 17769,
  "derby": 7285,
  "derbyshire": 18120,
  "dered": 8292,
  "derek": 5871,
  "deri@@": 15684,
  "derick": 22767,
  "dering": 9310,
  "deriv@@": 27439,
  "derivative": 15717,
  "derivatives": 20715,
  "derive": 21505,
  "derived": 4377,
  "derives": 13390,
  "derly": 30278,
  "derman": 23705,
  "derrick": 21212,
  "derry": 16939,
  "ders": 3740,
  "dership": 28592,
  "derson": 27166,
  "dery": 17817,
  "des": 1926,
  "des@@": 7564,
  "desc@@": 17821,
  "descend": 19021,
  "descend@@": 28016,
  "descendant": 13860,
  "descendants": 8763,
  "descended": 8824,
  "descending": 14013,
  "descends": 27407,
  "descent": 5980,
  "descri@@": 27787,
  "describe": 4760,
  "described": 1109,
  "describes": 4857,
  "describing": 7698,
  "descrip@@": 22312,
  "description": 5531,
  "descriptions": 14859,
  "deser@@": 13189,
  "desert": 4123,
  "deserted": 11448,
  "deserve": 5159,
  "deserved": 8569,
  "deserves": 10910,
  "desh": 28411,
  "deship": 30643,
  "desi@@": 13352,
  "desig@@": 25539,
  "design": 1011,
  "design@@": 19055,
  "designated": 3349,
  "designation": 8468,
  "designed": 1235,
  "designer": 5346,
  "designers": 11820,
  "designing": 13237,
  "designs": 4728,
  "desirable": 13773,
  "desire": 3240,
  "desired": 8659,
  "desires": 13162,
  "desk": 2547,
  "desk@@": 29345,
  "desktop": 18130,
  "desmond": 17735,
  "desol@@": 23884,
  "desp@@": 8487,
  "despair": 12574,
  "desper@@": 29084,
  "desperate": 4915,
  "desperately": 8347,
  "desperation": 15069,
  "despised": 27002,
  "despite": 1020,
  "desser@@": 28464,
  "dessert": 12919,
  "dest": 8191,
  "dest@@": 11587,
  "destination": 6779,
  "destinations": 16201,
  "destined": 14194,
  "destiny": 7631,
  "destri@@": 30884,
  "destro@@": 31374,
  "destroy": 3411,
  "destroy@@": 31452,
  "destroyed": 2160,
  "destroyer": 10195,
  "destroyers": 14931,
  "destroying": 8556,
  "destroys": 21044,
  "destruc@@": 25366,
  "destruction": 5086,
  "destructive": 15690,
  "det": 14077,
  "det@@": 10553,
  "deta@@": 29473,
  "detached": 13100,
  "detachment": 13323,
  "detail": 5245,
  "detailed": 6306,
  "detailing": 20626,
  "details": 3047,
  "detain@@": 23699,
  "detained": 15193,
  "detec@@": 12270,
  "detect": 10994,
  "detected": 9725,
  "detection": 11968,
  "detective": 3254,
  "detectives": 14201,
  "detector": 18677,
  "detention": 11798,
  "deter@@": 14618,
  "deterior@@": 15216,
  "deteriorated": 22457,
  "determin@@": 19541,
  "determination": 8915,
  "determine": 4671,
  "determined": 2820,
  "determines": 18825,
  "determining": 13807,
  "deton@@": 11384,
  "detri@@": 25196,
  "detro@@": 30996,
  "detroit": 5062,
  "dets": 29646,
  "dette": 18646,
  "deu@@": 15071,
  "deus": 27280,
  "deut@@": 28245,
  "deutsch@@": 18935,
  "deutsche": 14794,
  "dev": 11288,
  "dev@@": 3186,
  "deva": 25934,
  "deva@@": 21909,
  "devast@@": 30276,
  "devastated": 12739,
  "devastating": 14846,
  "devel@@": 31064,
  "develop": 3290,
  "develop@@": 29666,
  "developed": 1029,
  "developer": 10457,
  "developers": 10318,
  "developing": 4017,
  "development": 750,
  "developmental": 16296,
  "developments": 9013,
  "develops": 12830,
  "dever@@": 26469,
  "devi": 16290,
  "devi@@": 11931,
  "device": 3670,
  "devices": 5035,
  "devil": 4241,
  "deville": 28313,
  "devils": 13888,
  "devin": 26735,
  "devised": 15808,
  "devlin": 24574,
  "devo@@": 15305,
  "devoid": 24874,
  "devon": 6981,
  "devon@@": 27112,
  "devote": 24253,
  "devoted": 6729,
  "devotees": 26730,
  "devotion": 14043,
  "dew": 18953,
  "dew@@": 9637,
  "dewey": 20349,
  "dex": 12173,
  "dex@@": 21954,
  "dexter": 12648,
  "dey": 21501,
  "dez": 13446,
  "df": 11746,
  "dg@@": 8995,
  "dge": 5037,
  "dged": 12304,
  "dges": 11965,
  "dging": 19028,
  "dh": 16340,
  "dh@@": 9026,
  "dha@@": 13064,
  "dhaka": 21500,
  "dham": 23451,
  "dhan@@": 24417,
  "dhar@@": 15314,
  "dharma": 23229,
  "dheim": 24284,
  "di": 1464,
  "di@@": 518,
  "dia": 4572,
  "dia@@": 27478,
  "diabet@@": 30389,
  "diabetes": 16105,
  "diag@@": 14753,
  "diagno@@": 26420,
  "diagnosed": 11176,
  "diagnosis": 11340,
  "diagnostic": 18540,
  "diagonal": 23529,
  "diagram": 18796,
  "dial": 7960,
  "dial@@": 26637,
  "dialect": 9969,
  "dialects": 13776,
  "dialed": 20342,
  "dialo@@": 27018,
  "dialogue": 8314,
  "diam@@": 21676,
  "diameter": 6732,
  "diamon@@": 28087,
  "diamond": 5197,
  "diamonds": 9421,
  "dian": 6224,
  "diana": 8140,
  "diane": 10521,
  "dians": 16301,
  "diap@@": 16413,
  "diar@@": 22397,
  "diaries": 22732,
  "diary": 9118,
  "dias@@": 29833,
  "diaspora": 22780,
  "diaz": 21644,
  "dic": 8384,
  "dic@@": 4057,
  "dical": 28623,
  "dically": 20965,
  "dicals": 27438,
  "dice": 10904,
  "dick": 3657,
  "dick@@": 11108,
  "dickens": 22296,
  "dickinson": 21631,
  "dict": 27739,
  "dict@@": 23703,
  "dictat@@": 28850,
  "dictated": 26102,
  "dictator": 22706,
  "dictatorship": 21042,
  "diction": 21068,
  "dictionary": 10990,
  "did": 105,
  "did@@": 18095,
  "didn": 128,
  "die": 751,
  "die@@": 15689,
  "died": 537,
  "diego": 4406,
  "dience": 28101,
  "dient": 25129,
  "dier": 15368,
  "dies": 3943,
  "diesel": 7585,
  "diet": 7347,
  "diet@@": 17920,
  "diff@@": 13230,
  "differ": 11254,
  "differ@@": 29322,
  "differed": 22220,
  "difference": 2442,
  "differences": 5049,
  "different": 410,
  "differenti@@": 26981,
  "differential": 13419,
  "differentiate": 23370,
  "differentiated": 26733,
  "differentiation": 24846,
  "differently": 9145,
  "differing": 19505,
  "differs": 14366,
  "difficul@@": 31192,
  "difficult": 1704,
  "difficulties": 7682,
  "difficulty": 6926,
  "diffusion": 22075,
  "dig": 6063,
  "dig@@": 8620,
  "digest": 20815,
  "digger": 24447,
  "digging": 7782,
  "digit": 17257,
  "digit@@": 28397,
  "digital": 2563,
  "digitally": 22054,
  "digits": 18161,
  "dign@@": 23200,
  "digni@@": 26745,
  "dignity": 11544,
  "dike": 26988,
  "dil": 22999,
  "dil@@": 6568,
  "dilemma": 22221,
  "dilig@@": 22319,
  "dill@@": 14693,
  "dillon": 16152,
  "dily": 29693,
  "dim": 8801,
  "dim@@": 11027,
  "dime": 18143,
  "dimen@@": 28601,
  "dimension": 9632,
  "dimensional": 8333,
  "dimensions": 10015,
  "dimentary": 20383,
  "dimini@@": 27698,
  "diminished": 16794,
  "dimit@@": 23764,
  "dimitri": 16449,
  "dimly": 27421,
  "din": 5357,
  "din@@": 3946,
  "dina": 21932,
  "dinah": 26901,
  "dine": 9090,
  "diner": 10766,
  "ding": 1768,
  "ding@@": 18016,
  "dingly": 28199,
  "dings": 13175,
  "dington": 19108,
  "dini": 19850,
  "dining": 6552,
  "dinner": 1569,
  "dinners": 26113,
  "dino": 19621,
  "dinosaur": 16355,
  "dinosaurs": 18267,
  "dio": 8492,
  "dio@@": 17304,
  "dioc@@": 22330,
  "diocesan": 22338,
  "diocese": 5926,
  "dion": 11061,
  "diony@@": 25686,
  "dios": 27889,
  "dious": 16191,
  "dioxide": 15818,
  "dip": 13786,
  "dipl@@": 29304,
  "diplom@@": 27679,
  "diploma": 10841,
  "diplomacy": 19859,
  "diplomat": 12387,
  "diplomatic": 7513,
  "diplomats": 26593,
  "dipped": 13144,
  "dipping": 22776,
  "dir": 14656,
  "dir@@": 15510,
  "dire": 19547,
  "direc@@": 12813,
  "direct": 2033,
  "directed": 1498,
  "directing": 9911,
  "direction": 1630,
  "directional": 20217,
  "directions": 6856,
  "directive": 18443,
  "directly": 1835,
  "director": 816,
  "directorate": 18600,
  "directorial": 26878,
  "directors": 4957,
  "directory": 17470,
  "directs": 25931,
  "dirk": 19650,
  "dirt": 5004,
  "dirty": 3591,
  "dis": 8865,
  "dis@@": 860,
  "disa@@": 28107,
  "disabilities": 16206,
  "disability": 13406,
  "disabled": 9848,
  "disadvantage": 22110,
  "disagree": 15381,
  "disagreed": 19588,
  "disagreement": 19100,
  "disagreements": 25648,
  "disappear": 6879,
  "disappearance": 12705,
  "disappeared": 3358,
  "disappearing": 13391,
  "disappears": 15699,
  "disappoint": 19948,
  "disappointed": 6631,
  "disappointing": 14864,
  "disappointment": 9411,
  "disapproval": 23284,
  "disaster": 5590,
  "disasters": 20968,
  "disastrous": 17294,
  "disbanded": 9440,
  "disbelief": 12362,
  "disc": 5810,
  "disc@@": 7001,
  "discarded": 15955,
  "discer@@": 27381,
  "dischar@@": 27633,
  "discharge": 11728,
  "discharged": 13997,
  "disci@@": 31244,
  "discipl@@": 28885,
  "disciple": 19227,
  "disciples": 18713,
  "disciplinary": 16118,
  "discipline": 8158,
  "disciplined": 25582,
  "disciplines": 14447,
  "disclose": 27336,
  "disclosed": 24984,
  "disclosure": 21203,
  "disco": 13127,
  "disco@@": 19142,
  "discomfort": 18385,
  "disconnected": 22343,
  "discontinued": 10349,
  "discount": 16734,
  "discoura@@": 21440,
  "discouraged": 23572,
  "discourse": 18616,
  "discover": 6141,
  "discover@@": 28454,
  "discovered": 1896,
  "discoveries": 17969,
  "discovering": 13813,
  "discovers": 9132,
  "discovery": 4579,
  "discre@@": 11493,
  "discreet": 22272,
  "discrete": 19576,
  "discretion": 18269,
  "discrimin@@": 17205,
  "discrimination": 9458,
  "discs": 17974,
  "discu@@": 31195,
  "discus@@": 34641,
  "discuss": 4186,
  "discussed": 5789,
  "discusses": 19212,
  "discussing": 9256,
  "discussion": 5507,
  "discussions": 10579,
  "disdain": 26917,
  "disease": 2925,
  "diseases": 7813,
  "disgrace": 20006,
  "disgu@@": 24646,
  "disguise": 12350,
  "disguised": 16507,
  "disgust": 11796,
  "disgusted": 17271,
  "disgusting": 9144,
  "dish": 6596,
  "dish@@": 12562,
  "dishes": 8495,
  "dishon@@": 16914,
  "disill@@": 26253,
  "disin@@": 20925,
  "disintegr@@": 17282,
  "disk": 9533,
  "dislike": 17243,
  "disliked": 20468,
  "dism": 25351,
  "dismant@@": 28512,
  "dismantled": 20493,
  "dismay": 21489,
  "dismis@@": 14567,
  "dismiss": 18354,
  "dismissal": 16580,
  "dismissed": 6151,
  "disney": 6004,
  "disney@@": 30256,
  "disneyland": 26625,
  "diso@@": 28328,
  "disobe@@": 18780,
  "dison": 28301,
  "disorder": 8323,
  "disorders": 12044,
  "disp@@": 18720,
  "dispar@@": 16755,
  "dispat@@": 21997,
  "dispatch": 16456,
  "dispatched": 14902,
  "dispen@@": 25430,
  "dispens@@": 27210,
  "disper@@": 12668,
  "dispersed": 17396,
  "displaced": 14068,
  "displacement": 15687,
  "display": 3682,
  "displayed": 6720,
  "displaying": 16711,
  "displays": 9199,
  "dispo@@": 28502,
  "dispos@@": 19382,
  "disposal": 12835,
  "dispose": 24784,
  "disposed": 21825,
  "disposition": 22254,
  "dispro@@": 20958,
  "dispu@@": 29066,
  "dispute": 7150,
  "disputed": 11065,
  "disputes": 12781,
  "disqualified": 22975,
  "disrespect": 26833,
  "disrup@@": 17696,
  "disrupt": 24126,
  "disrupted": 21889,
  "disruption": 22993,
  "dissem@@": 21017,
  "disser@@": 29565,
  "dissertation": 17410,
  "dissid@@": 23725,
  "dissip@@": 22703,
  "dissipated": 24498,
  "dissolution": 13752,
  "dissolve": 23240,
  "dissolved": 8532,
  "dist": 18348,
  "dist@@": 6766,
  "dista@@": 25865,
  "distance": 1684,
  "distances": 12967,
  "distant": 5645,
  "distinc@@": 22353,
  "distinct": 4803,
  "distinction": 7627,
  "distinctive": 7868,
  "distinctly": 20850,
  "distingu@@": 28752,
  "distingui@@": 27897,
  "distinguish": 10978,
  "distinguished": 4712,
  "distinguishing": 23404,
  "distor@@": 27465,
  "distorted": 20659,
  "distortion": 23931,
  "distr@@": 21816,
  "distract": 13340,
  "distracted": 9209,
  "distracting": 22998,
  "distraction": 13166,
  "distrau@@": 36487,
  "distraught": 25145,
  "distress": 11579,
  "distressed": 24576,
  "distri@@": 29137,
  "distribu@@": 25646,
  "distribute": 16176,
  "distributed": 4856,
  "distributing": 22146,
  "distribution": 3289,
  "distributions": 25503,
  "distributor": 19606,
  "distributors": 26850,
  "distric@@": 28216,
  "district": 488,
  "districts": 3760,
  "distru@@": 21894,
  "distur@@": 29203,
  "disturb": 15000,
  "disturb@@": 24267,
  "disturbance": 16583,
  "disturbed": 9583,
  "disturbing": 12036,
  "disu@@": 24360,
  "dit": 23217,
  "dit@@": 9688,
  "ditch": 11204,
  "diti@@": 22036,
  "dition": 27943,
  "ditional": 32815,
  "ditionally": 28762,
  "ditions": 29905,
  "dity": 13449,
  "dium": 12002,
  "diums": 26919,
  "dius": 27414,
  "div": 18791,
  "div@@": 10388,
  "diva": 25491,
  "dive": 9286,
  "diver": 20250,
  "diver@@": 10767,
  "divers": 20897,
  "diverse": 7299,
  "diversi@@": 17574,
  "diversion": 19383,
  "diversity": 9442,
  "divert": 26802,
  "diverted": 20123,
  "dives": 21075,
  "divi@@": 10716,
  "divide": 10899,
  "divided": 2698,
  "divides": 23700,
  "dividing": 17424,
  "divin@@": 24533,
  "divine": 6927,
  "diving": 9250,
  "divinity": 19743,
  "division": 718,
  "divisional": 18286,
  "divisions": 4863,
  "división": 19629,
  "divor@@": 27440,
  "divorce": 5419,
  "divorced": 7578,
  "dixie": 21539,
  "dixon": 11924,
  "dized": 23647,
  "dizz@@": 21204,
  "dizzy": 12667,
  "dj": 6676,
  "dj@@": 11975,
  "dl": 14617,
  "dle": 6757,
  "dled": 16922,
  "dles": 17631,
  "dless": 15917,
  "dley": 16309,
  "dling": 13316,
  "dly": 5089,
  "dm": 19785,
  "dman": 13292,
  "dment": 28906,
  "dmit@@": 17119,
  "dn": 16536,
  "dn@@": 17345,
  "dna": 3917,
  "dness": 8008,
  "dney": 29134,
  "do": 59,
  "do@@": 896,
  "dob@@": 25372,
  "doba": 22608,
  "doc": 4849,
  "doc@@": 9970,
  "doch": 30163,
  "dock": 5494,
  "dock@@": 16319,
  "docking": 25136,
  "docks": 13485,
  "doctor": 1001,
  "doctoral": 11028,
  "doctorate": 9758,
  "doctors": 5056,
  "doctr@@": 17671,
  "doctrine": 9363,
  "docu@@": 29639,
  "docum@@": 26597,
  "document": 5562,
  "document@@": 29284,
  "documentaries": 18644,
  "documentary": 4212,
  "documentation": 14751,
  "documented": 8288,
  "documents": 4487,
  "dod": 24792,
  "dod@@": 12077,
  "dodd": 26220,
  "dodge": 11788,
  "dodged": 27340,
  "dodgers": 15004,
  "doe": 16088,
  "does": 322,
  "does@@": 29029,
  "doesn": 421,
  "doff": 21840,
  "dog": 1328,
  "dog@@": 12284,
  "dogs": 3633,
  "doin": 19002,
  "doing": 267,
  "dol": 25785,
  "dol@@": 5312,
  "dolf": 28921,
  "doll": 7793,
  "doll@@": 20612,
  "dollar": 5849,
  "dollars": 3560,
  "dolls": 13431,
  "dolly": 19318,
  "dolo@@": 29799,
  "dolores": 24233,
  "dolph": 29128,
  "dolph@@": 29571,
  "dolphin": 18073,
  "dolphins": 14197,
  "dom": 6559,
  "dom@@": 5222,
  "domain": 5754,
  "domains": 14958,
  "dome": 7383,
  "domen": 30459,
  "domen@@": 29318,
  "domenico": 22936,
  "domesday": 25460,
  "domest@@": 16484,
  "domestic": 4027,
  "domin@@": 6425,
  "dominance": 14703,
  "dominant": 6883,
  "dominate": 16559,
  "dominated": 5948,
  "dominating": 23969,
  "domination": 19552,
  "domingo": 20799,
  "dominic": 11571,
  "dominican": 11721,
  "dominion": 15332,
  "dominique": 22309,
  "doms": 28992,
  "don": 67,
  "don@@": 2166,
  "dona": 26449,
  "donal@@": 24234,
  "donald": 6118,
  "donate": 20060,
  "donated": 6801,
  "donation": 13443,
  "donations": 12043,
  "doncaster": 23498,
  "done": 369,
  "done@@": 30398,
  "doned": 27314,
  "dong": 8115,
  "dong@@": 18011,
  "donkey": 16747,
  "donna": 8675,
  "donnell": 15114,
  "donnie": 23060,
  "donny": 24712,
  "dono@@": 27647,
  "donor": 14020,
  "donors": 19454,
  "donovan": 12378,
  "dons": 22489,
  "dont": 16961,
  "doo": 11607,
  "doo@@": 11049,
  "dool@@": 22686,
  "doom": 12618,
  "doom@@": 25863,
  "doomed": 16276,
  "door": 342,
  "door@@": 9020,
  "doorbell": 22642,
  "doors": 2463,
  "doorstep": 22679,
  "doorway": 5888,
  "dop@@": 8695,
  "dope": 15966,
  "dor": 7912,
  "dor@@": 2426,
  "dora": 15274,
  "dorf": 11477,
  "dorian": 16269,
  "doris": 16284,
  "dorm": 17168,
  "dormant": 23938,
  "dormit@@": 28442,
  "dormitory": 24487,
  "doro@@": 19675,
  "dorothy": 10122,
  "dorsal": 14711,
  "dorset": 18804,
  "dos": 5686,
  "dose": 11947,
  "doses": 21908,
  "dot": 7974,
  "dot@@": 25029,
  "dote": 28725,
  "dots": 16264,
  "dotted": 22037,
  "dou": 21195,
  "dou@@": 4300,
  "doub@@": 17142,
  "double": 1568,
  "doubled": 10896,
  "doubles": 8355,
  "doubling": 21916,
  "doubt": 2331,
  "doubted": 12076,
  "doubtful": 21999,
  "doubts": 11077,
  "doug": 7498,
  "dough": 15413,
  "dough@@": 18076,
  "douglas": 4813,
  "dous": 29372,
  "dov": 24691,
  "dova": 27952,
  "dove": 10856,
  "dover": 11649,
  "dow": 17672,
  "dow@@": 6593,
  "dowager": 23497,
  "dowell": 27045,
  "dowh@@": 27348,
  "down": 120,
  "down@@": 4365,
  "downed": 21248,
  "downfall": 24041,
  "downhill": 20759,
  "downing": 26363,
  "download": 9999,
  "downloaded": 23361,
  "downs": 10992,
  "downstairs": 6054,
  "downstream": 14909,
  "downtown": 3789,
  "downward": 14671,
  "dowry": 27040,
  "dows": 30286,
  "dox": 28293,
  "doyle": 10493,
  "dozen": 4643,
  "dozens": 8841,
  "dp": 9368,
  "dr": 783,
  "dr@@": 3473,
  "dra": 7182,
  "dra@@": 2710,
  "drac@@": 28247,
  "dracula": 20387,
  "draft": 3366,
  "drafted": 7260,
  "drafting": 23913,
  "drag": 5787,
  "drag@@": 26331,
  "dragged": 6137,
  "dragging": 10160,
  "dragon": 3742,
  "dragon@@": 16809,
  "dragons": 7982,
  "drain": 10779,
  "drainage": 13299,
  "drained": 10513,
  "draining": 20635,
  "drains": 21435,
  "drake": 6688,
  "dram@@": 21760,
  "drama": 2411,
  "dramas": 17881,
  "dramat@@": 28652,
  "dramati@@": 27241,
  "dramatic": 5637,
  "dramatically": 12143,
  "drank": 7947,
  "draped": 15516,
  "draper": 27084,
  "dras": 29122,
  "drastic": 23985,
  "drastically": 23120,
  "drau@@": 19830,
  "draw": 2452,
  "draw@@": 12455,
  "drawer": 10375,
  "drawers": 20275,
  "drawing": 3706,
  "drawings": 9470,
  "drawn": 3218,
  "draws": 9377,
  "dre": 14340,
  "dre@@": 3867,
  "dread": 14361,
  "dread@@": 21558,
  "dreadful": 17058,
  "dream": 1660,
  "dream@@": 11133,
  "dreamed": 10400,
  "dreamer": 26264,
  "dreaming": 8835,
  "dreams": 3268,
  "dreamt": 23480,
  "dred": 17303,
  "drenched": 24845,
  "dresden": 15465,
  "dress": 1878,
  "dress@@": 24877,
  "dressed": 2794,
  "dresser": 13182,
  "dresses": 11485,
  "dressing": 8383,
  "drew": 2220,
  "drey": 29181,
  "dri@@": 3711,
  "drich": 23310,
  "drick": 27303,
  "dridge": 24555,
  "dried": 8454,
  "drift": 11066,
  "drifted": 9338,
  "drifting": 14499,
  "drill": 10112,
  "drilled": 25829,
  "drilling": 16467,
  "drin@@": 17907,
  "drink": 1226,
  "drinking": 3284,
  "drinks": 5580,
  "drip": 22531,
  "dripped": 23815,
  "dripping": 13548,
  "driv@@": 29382,
  "drive": 1150,
  "driven": 4316,
  "driver": 2231,
  "drivers": 6335,
  "drives": 7740,
  "driveway": 10033,
  "driving": 2255,
  "dro": 29246,
  "dro@@": 3508,
  "drome": 18740,
  "dron": 19045,
  "drone": 17120,
  "drones": 23988,
  "drop": 1806,
  "dropped": 1488,
  "dropping": 5426,
  "drops": 6859,
  "drought": 15890,
  "drove": 3351,
  "drow": 22396,
  "drown": 14175,
  "drowned": 11096,
  "drowning": 12910,
  "dru@@": 5677,
  "drug": 2414,
  "drugged": 20789,
  "drugs": 3335,
  "drum": 6407,
  "drum@@": 20487,
  "drummer": 6701,
  "drumming": 25446,
  "drummond": 23466,
  "drums": 5837,
  "drunk": 3355,
  "drunk@@": 22929,
  "drunken": 14604,
  "dry": 2375,
  "dry@@": 12595,
  "drying": 18065,
  "dryly": 22230,
  "ds": 1257,
  "ds@@": 25908,
  "dson": 16227,
  "dt": 9056,
  "dt@@": 24024,
  "du": 3302,
  "du@@": 855,
  "dual": 6990,
  "dub": 18278,
  "dub@@": 26459,
  "dubai": 12875,
  "dubbed": 9276,
  "dubious": 24721,
  "dublin": 5599,
  "duc@@": 5267,
  "duce": 28227,
  "duced": 19447,
  "duces": 26788,
  "duchess": 11178,
  "duchy": 11860,
  "duci@@": 26714,
  "ducing": 22476,
  "duck": 6882,
  "duck@@": 27151,
  "ducked": 13594,
  "ducks": 13497,
  "duct": 15899,
  "ducted": 28545,
  "duction": 15129,
  "ductions": 20450,
  "ductive": 27986,
  "dude": 3207,
  "dudes": 23418,
  "dudley": 14386,
  "due": 517,
  "duel": 13775,
  "dues": 27725,
  "duet": 14966,
  "duff": 19938,
  "duffy": 23115,
  "dug": 7117,
  "duh": 24694,
  "duke": 2444,
  "dukes": 19038,
  "dul@@": 9394,
  "dull": 9004,
  "dull@@": 18817,
  "duly": 22842,
  "dum": 15826,
  "dum@@": 6622,
  "dumb": 6273,
  "dummy": 17018,
  "dump": 9193,
  "dump@@": 21607,
  "dumped": 9561,
  "dumping": 21116,
  "dun": 15247,
  "dun@@": 3714,
  "duncan": 6736,
  "dund@@": 24051,
  "dundee": 16669,
  "dune": 24418,
  "dunes": 20019,
  "dungeon": 16481,
  "dungeons": 21024,
  "dunk@@": 18778,
  "dunn": 17358,
  "dunno": 19638,
  "duo": 6661,
  "duous": 28541,
  "dup": 17365,
  "dupl@@": 12829,
  "duplicate": 24929,
  "dur": 13833,
  "dur@@": 3792,
  "duration": 9857,
  "durham": 10386,
  "during": 148,
  "dus": 11480,
  "dusk": 18678,
  "dust": 4465,
  "dusty": 12045,
  "dutch": 2612,
  "duties": 4656,
  "duty": 2567,
  "duval": 27345,
  "dv@@": 15266,
  "dvd": 4754,
  "dvds": 24442,
  "dw@@": 19754,
  "dwar@@": 11684,
  "dwarf": 11219,
  "dwell": 14820,
  "dwell@@": 27866,
  "dwelling": 14265,
  "dwellings": 20082,
  "dwi@@": 29064,
  "dwight": 13495,
  "dwind@@": 22964,
  "dy": 1947,
  "dy@@": 3102,
  "dye": 18304,
  "dying": 2984,
  "dyke": 22067,
  "dylan": 6427,
  "dyna@@": 27806,
  "dynam@@": 18550,
  "dynamic": 7151,
  "dynamics": 9837,
  "dynamite": 18545,
  "dynamo": 23739,
  "dynasties": 27154,
  "dynasty": 4448,
  "dys@@": 17285,
  "dz@@": 13397,
  "dá@@": 18635,
  "dé@@": 7165,
  "dí@@": 28740,
  "díaz": 26693,
  "dü@@": 28316,
  "düsseldorf": 25943,
  "e": 289,
  "e@@": 367,
  "e_@@": 30066,
  "ea": 4512,
  "ea@@": 2478,
  "eable": 5997,
  "eably": 19825,
  "eabouts": 29630,
  "each": 229,
  "ead": 10448,
  "eads": 27324,
  "eae": 22500,
  "eafter": 28747,
  "eager": 7882,
  "eager@@": 28241,
  "eagerly": 18373,
  "eagle": 6073,
  "eagles": 8417,
  "eake": 31995,
  "eal": 7058,
  "ean": 9287,
  "ean@@": 24621,
  "eanor": 34387,
  "eans": 21283,
  "ear": 2229,
  "ear@@": 3820,
  "eared": 15007,
  "earing": 18541,
  "earl": 3759,
  "earli@@": 31129,
  "earlier": 1240,
  "earliest": 4785,
  "early": 309,
  "earn": 5611,
  "earned": 2118,
  "earnest": 18662,
  "earning": 6106,
  "earnings": 18633,
  "earns": 18608,
  "earrings": 21398,
  "ears": 3071,
  "eart@@": 20269,
  "earth": 1101,
  "earth@@": 9909,
  "earthqua@@": 34989,
  "earthquake": 7876,
  "earthquakes": 19146,
  "ease": 4861,
  "eased": 8822,
  "eases": 27761,
  "easier": 3812,
  "easiest": 22505,
  "easily": 2211,
  "easing": 23079,
  "eason": 30137,
  "east": 458,
  "east@@": 6769,
  "easter": 10600,
  "easter@@": 17710,
  "eastern": 1276,
  "easton": 26501,
  "eastward": 16694,
  "easy": 1043,
  "eat": 1176,
  "eat@@": 18357,
  "eaten": 6287,
  "eater": 25999,
  "eating": 3153,
  "eaton": 20438,
  "eats": 14165,
  "eau": 6210,
  "eaux": 22656,
  "eaves@@": 26475,
  "eb": 11809,
  "eb@@": 8817,
  "ebe": 28355,
  "eber": 24425,
  "eber@@": 16738,
  "ebert": 24278,
  "ebl@@": 29038,
  "ebo": 23664,
  "ebr@@": 27568,
  "ec": 7845,
  "ec@@": 1095,
  "eca": 22737,
  "eccentric": 19030,
  "eccle@@": 28594,
  "ecclesi@@": 28803,
  "ecclesiast@@": 29274,
  "ecclesiastical": 14131,
  "ece": 12888,
  "ech": 7803,
  "ech@@": 7344,
  "echa@@": 22855,
  "eches": 25326,
  "echi@@": 23598,
  "echo": 8215,
  "echo@@": 25987,
  "echoed": 9595,
  "echoes": 20255,
  "echoing": 18033,
  "eck": 9839,
  "eck@@": 17295,
  "eclec@@": 29766,
  "eclectic": 24001,
  "ecli@@": 30321,
  "eclip@@": 21364,
  "eclipse": 15191,
  "eco": 13492,
  "eco@@": 9408,
  "ecological": 14154,
  "ecology": 16076,
  "econom@@": 28187,
  "economic": 1696,
  "economical": 24044,
  "economically": 17012,
  "economics": 5284,
  "economies": 22094,
  "economist": 14064,
  "economists": 26510,
  "economy": 3533,
  "ecosystem": 19862,
  "ecosystems": 25131,
  "ecraft": 26658,
  "ecstasy": 18433,
  "ect": 14786,
  "ected": 10364,
  "ecti@@": 16199,
  "ectile": 25311,
  "ecting": 11679,
  "ection": 12818,
  "ection@@": 27598,
  "ections": 14103,
  "ective": 13342,
  "ectively": 25008,
  "ectiveness": 32339,
  "ectives": 27620,
  "ector": 12850,
  "ectors": 18460,
  "ects": 15922,
  "ecture": 30814,
  "ecu@@": 16065,
  "ecuador": 15594,
  "ecumen@@": 27204,
  "ed": 551,
  "ed@@": 1577,
  "eda": 8334,
  "eddie": 3883,
  "eddy": 18494,
  "ede": 15696,
  "eded": 19774,
  "eden": 9366,
  "eder": 17019,
  "eder@@": 18916,
  "edes": 22310,
  "edg@@": 20856,
  "edgar": 10166,
  "edge": 1649,
  "edged": 13895,
  "edges": 6939,
  "edging": 27174,
  "edi": 25631,
  "edi@@": 12014,
  "edible": 22866,
  "edic": 26142,
  "edic@@": 16760,
  "edical": 25533,
  "edics": 29796,
  "edie": 25400,
  "edin": 21669,
  "edin@@": 29526,
  "edinburgh": 5863,
  "eding": 27911,
  "edison": 18941,
  "edit": 18190,
  "edit@@": 21377,
  "edited": 6026,
  "edith": 14533,
  "editing": 11083,
  "edition": 2170,
  "editions": 8077,
  "editor": 2498,
  "editorial": 9249,
  "editors": 12129,
  "edly": 11157,
  "edmon@@": 25300,
  "edmonton": 12616,
  "edmund": 10312,
  "edna": 21575,
  "edness": 20072,
  "edo": 9356,
  "eds": 13972,
  "edu@@": 27518,
  "eduard": 27354,
  "eduardo": 19571,
  "educ@@": 16856,
  "educate": 17953,
  "educated": 3766,
  "education": 796,
  "educational": 3602,
  "educator": 14041,
  "educators": 23714,
  "edward": 2232,
  "edwards": 8089,
  "edwin": 11528,
  "edy": 18937,
  "ee": 2881,
  "ee@@": 6356,
  "eed": 19940,
  "eed@@": 27728,
  "eeded": 32280,
  "eeding": 34209,
  "eeds": 30420,
  "eel": 18094,
  "een": 9564,
  "eenth": 31869,
  "eer": 8511,
  "eer@@": 23073,
  "eerie": 19872,
  "eering": 22371,
  "eers": 16265,
  "ees": 8901,
  "ef": 8653,
  "ef@@": 4205,
  "efa": 29441,
  "efer": 27168,
  "eff@@": 6971,
  "effect": 1877,
  "effective": 3521,
  "effectively": 5785,
  "effectiveness": 13655,
  "effects": 2587,
  "effic@@": 30047,
  "efficacy": 25991,
  "effici@@": 29138,
  "efficiency": 7875,
  "efficient": 7000,
  "efficiently": 20212,
  "efficients": 37544,
  "effort": 2337,
  "efforts": 2731,
  "efs": 16375,
  "eful": 13973,
  "efully": 13553,
  "eg": 13027,
  "eg@@": 3803,
  "ega": 27520,
  "egal": 23446,
  "egan": 15753,
  "egar": 24657,
  "ege": 23877,
  "eged": 29193,
  "eger": 15082,
  "eges": 29239,
  "egg": 5963,
  "egg@@": 17462,
  "eggs": 4680,
  "egi@@": 14395,
  "egic": 29251,
  "ego": 9156,
  "egr@@": 26405,
  "egy@@": 29272,
  "egyp@@": 28256,
  "egypt": 4553,
  "egyptian": 6495,
  "egyptians": 24466,
  "eh": 2924,
  "eh@@": 9730,
  "ehouse": 18219,
  "ei": 8317,
  "ei@@": 3247,
  "eia": 23176,
  "eid": 25717,
  "eigen@@": 27071,
  "eigh": 28358,
  "eigh@@": 21443,
  "eight": 951,
  "eighteen": 7010,
  "eighteenth": 14853,
  "eighth": 5201,
  "eighty": 11433,
  "eil": 23320,
  "eil@@": 27549,
  "eileen": 22859,
  "eim": 29075,
  "ein": 16655,
  "ein@@": 10433,
  "eine": 28570,
  "eing": 12155,
  "einstein": 14803,
  "eira": 15715,
  "eiro": 28015,
  "eis@@": 19228,
  "eisen@@": 26950,
  "eisenhower": 18910,
  "either": 624,
  "eive": 18642,
  "eived": 31971,
  "ej@@": 16279,
  "ejected": 26036,
  "ejo": 22549,
  "ek": 2759,
  "ek@@": 5301,
  "eka": 21713,
  "eked": 28299,
  "eking": 27463,
  "eks": 10367,
  "el": 640,
  "el@@": 593,
  "ela": 4816,
  "elabor@@": 16597,
  "elaborate": 8913,
  "elaine": 13420,
  "elan": 24889,
  "elan@@": 23179,
  "eland": 7914,
  "elandic": 32142,
  "elastic": 21658,
  "elbow": 7959,
  "elbows": 12993,
  "eld": 17523,
  "elder": 5273,
  "elderly": 9523,
  "elders": 11998,
  "eldest": 6980,
  "ele": 6840,
  "ele@@": 18261,
  "eleanor": 10288,
  "elec@@": 8631,
  "elect": 12297,
  "elected": 1152,
  "election": 972,
  "elections": 2846,
  "elector": 24130,
  "electoral": 5960,
  "electorate": 15408,
  "electors": 23626,
  "electr@@": 15024,
  "electri@@": 22560,
  "electric": 2692,
  "electrical": 5423,
  "electricity": 5302,
  "electrified": 20947,
  "electro": 19484,
  "electro@@": 6337,
  "electromagnetic": 18209,
  "electron": 11258,
  "electron@@": 20890,
  "electronic": 4013,
  "electronics": 8729,
  "electrons": 16499,
  "eled": 7166,
  "eleg@@": 16749,
  "elegant": 10295,
  "elek@@": 26032,
  "elem@@": 28308,
  "element": 5000,
  "elemental": 21675,
  "elementary": 5264,
  "elements": 2512,
  "elena": 7297,
  "elephan@@": 29887,
  "elephant": 9876,
  "elephants": 16955,
  "eler": 24164,
  "elers": 29738,
  "eles": 26796,
  "eless": 6967,
  "elessly": 20993,
  "elessness": 23444,
  "elet": 27457,
  "elets": 23704,
  "elev@@": 22406,
  "elevated": 8325,
  "elevation": 6916,
  "elevations": 21646,
  "elevator": 5834,
  "elevators": 19906,
  "eleven": 4221,
  "elevent@@": 32234,
  "eleventh": 13382,
  "eley": 16924,
  "elf": 14637,
  "eli": 7127,
  "eli@@": 5021,
  "elia": 14231,
  "elian": 25639,
  "elias": 16768,
  "elic": 28826,
  "elids": 30330,
  "elie": 19992,
  "elier": 19912,
  "eligibility": 20440,
  "eligible": 6914,
  "elijah": 13778,
  "elim@@": 28886,
  "elimin@@": 27923,
  "eliminate": 10113,
  "eliminated": 6389,
  "eliminating": 16996,
  "elimination": 10524,
  "elin": 17287,
  "eline": 11939,
  "elines": 26665,
  "eliness": 30237,
  "eling": 4913,
  "eliot": 18694,
  "elis": 17072,
  "elis@@": 28973,
  "elisabeth": 17102,
  "elise": 14015,
  "elite": 6378,
  "elites": 20010,
  "elius": 28699,
  "eliz@@": 18279,
  "eliza": 13371,
  "elizabeth": 2578,
  "elk": 21121,
  "ell": 2100,
  "ell@@": 3475,
  "ella": 3931,
  "elle": 4528,
  "elled": 16120,
  "ellen": 7536,
  "eller": 16591,
  "ellery": 28968,
  "elles": 16969,
  "elli": 6930,
  "ellie": 8611,
  "elling": 18966,
  "elliot": 10517,
  "elliott": 11229,
  "ellip@@": 15146,
  "ellis": 8606,
  "ellison": 24756,
  "ello": 9248,
  "ells": 26814,
  "ellular": 20886,
  "elly": 17742,
  "elm": 19319,
  "elman": 25019,
  "elmer": 26590,
  "elo": 15677,
  "elo@@": 11621,
  "elong": 29228,
  "elong@@": 28007,
  "elongated": 20400,
  "elope": 25546,
  "eloqu@@": 26283,
  "els": 2515,
  "elsa": 22247,
  "else": 500,
  "elsen": 29553,
  "elsew@@": 30476,
  "elsewhere": 5927,
  "elson": 19455,
  "elt": 20016,
  "elton": 16585,
  "elu@@": 11889,
  "elves": 16577,
  "elvis": 11897,
  "ely": 3459,
  "ely@@": 21588,
  "elyn": 23436,
  "em": 1389,
  "em@@": 813,
  "ema": 9950,
  "ema@@": 17425,
  "email": 8428,
  "emails": 21232,
  "eman": 5534,
  "eman@@": 11946,
  "emanci@@": 28879,
  "emancipation": 26528,
  "emann": 21165,
  "ematic": 28786,
  "embank@@": 29554,
  "embankment": 26508,
  "embar@@": 15575,
  "embark": 25794,
  "embarked": 10586,
  "embarra@@": 29100,
  "embarrass": 21004,
  "embarrassed": 7261,
  "embarrassing": 9527,
  "embarrassment": 13015,
  "embas@@": 28179,
  "embassy": 7799,
  "embe@@": 14572,
  "embedded": 11685,
  "ember": 26161,
  "emblem": 18877,
  "embo@@": 22903,
  "embodied": 23855,
  "embr@@": 18173,
  "embrace": 8585,
  "embraced": 14356,
  "embracing": 25414,
  "embro@@": 28235,
  "embroi@@": 17563,
  "eme": 14837,
  "emen": 10558,
  "ement": 6089,
  "ements": 5244,
  "emer@@": 17676,
  "emerald": 14818,
  "emerg@@": 28582,
  "emerge": 12558,
  "emerged": 4937,
  "emergence": 15627,
  "emergencies": 27065,
  "emergency": 3116,
  "emerges": 21219,
  "emerging": 8525,
  "emeritus": 15887,
  "emerson": 13750,
  "emi": 10789,
  "emi@@": 18359,
  "emia": 11839,
  "emic": 13265,
  "emies": 30369,
  "emig@@": 16782,
  "emigrated": 11880,
  "emigration": 23718,
  "emil": 19977,
  "emilia": 25790,
  "emilio": 22749,
  "emily": 4379,
  "emin@@": 15587,
  "eminent": 15393,
  "emir": 27024,
  "emir@@": 28195,
  "emirates": 19269,
  "emis@@": 25137,
  "emission": 18650,
  "emissions": 12764,
  "emitted": 25641,
  "emma": 3701,
  "emmanuel": 19248,
  "emmett": 26254,
  "emmy": 10828,
  "emo@@": 8999,
  "emon": 20930,
  "emont": 24033,
  "emor@@": 28720,
  "emotion": 6274,
  "emotional": 5085,
  "emotionally": 13090,
  "emotions": 5172,
  "emp@@": 7379,
  "empathy": 27177,
  "emper@@": 29495,
  "emperor": 2292,
  "emperors": 22097,
  "empha@@": 30574,
  "emphasi@@": 21833,
  "emphasis": 7644,
  "emphasize": 19549,
  "emphasized": 14017,
  "emphasizes": 24298,
  "emphasizing": 26357,
  "empir@@": 28682,
  "empire": 1854,
  "empirical": 21032,
  "empl@@": 31292,
  "emplo@@": 31663,
  "employ": 12544,
  "employ@@": 29576,
  "employed": 3761,
  "employee": 6923,
  "employees": 3988,
  "employer": 11120,
  "employers": 13448,
  "employing": 17231,
  "employment": 5578,
  "employs": 15248,
  "empow@@": 12496,
  "empress": 10329,
  "empt": 28413,
  "emptied": 21136,
  "emptiness": 23927,
  "empty": 2092,
  "ems": 12249,
  "emul@@": 21255,
  "emy": 13891,
  "en": 483,
  "en@@": 476,
  "ena": 2748,
  "enable": 9135,
  "enabled": 9204,
  "enables": 14788,
  "enabling": 13379,
  "enact@@": 29465,
  "enacted": 12737,
  "enactment": 26670,
  "enam@@": 19442,
  "enary": 28052,
  "enas": 17711,
  "enbach": 26777,
  "enberg": 8956,
  "enburg": 12369,
  "enc@@": 2499,
  "ence": 2526,
  "ence@@": 26718,
  "enced": 22122,
  "encer": 27938,
  "ences": 7291,
  "ench": 18139,
  "ench@@": 18074,
  "enchan@@": 19437,
  "enchanted": 20881,
  "enched": 16247,
  "enches": 28251,
  "enching": 23912,
  "encia": 23246,
  "encies": 10510,
  "encing": 10458,
  "encir@@": 15852,
  "encla@@": 23682,
  "enclosed": 11259,
  "enclosure": 20167,
  "enco@@": 18053,
  "encoded": 16442,
  "encoding": 23524,
  "encom@@": 15833,
  "encompasses": 15567,
  "encompassing": 21883,
  "encore": 27250,
  "encoun@@": 28074,
  "encounter": 7257,
  "encountered": 7906,
  "encounters": 11819,
  "encoura@@": 29475,
  "encourage": 8171,
  "encouraged": 5727,
  "encouragement": 16556,
  "encourages": 18310,
  "encouraging": 11311,
  "encro@@": 26727,
  "encry@@": 23407,
  "encryption": 24354,
  "ency": 6682,
  "ency@@": 28854,
  "encyclo@@": 23145,
  "encyclopedia": 17388,
  "end": 240,
  "end@@": 1981,
  "enda": 12837,
  "endale": 20208,
  "endangered": 10976,
  "ende": 21220,
  "endea@@": 27929,
  "endeav@@": 19896,
  "endeavor": 26124,
  "ended": 1232,
  "endemic": 10626,
  "ender": 8486,
  "enders": 9105,
  "endi@@": 24584,
  "ending": 2379,
  "endings": 22218,
  "endish": 25083,
  "endless": 9903,
  "endo": 20666,
  "endo@@": 13992,
  "endon": 18899,
  "endor@@": 14143,
  "endorf": 22719,
  "endorsed": 13217,
  "endorsement": 22366,
  "endow@@": 28861,
  "endowed": 22513,
  "endowment": 19036,
  "endra": 16670,
  "ends": 2024,
  "endur@@": 30297,
  "endurance": 16992,
  "endure": 15583,
  "endured": 16806,
  "enduring": 19009,
  "ene": 3391,
  "ened": 4299,
  "enemies": 4745,
  "enemy": 2194,
  "ener": 12806,
  "ener@@": 15526,
  "energetic": 19806,
  "energies": 20929,
  "energy": 1227,
  "eners": 28602,
  "enes": 27170,
  "eness": 9658,
  "eney": 28767,
  "enforce": 17691,
  "enforced": 18136,
  "enforcement": 6721,
  "eng": 11303,
  "eng@@": 2871,
  "enga": 26291,
  "engag@@": 30653,
  "engage": 7294,
  "engaged": 3494,
  "engagement": 6623,
  "engagements": 22696,
  "engaging": 12357,
  "enge": 28711,
  "enger": 16687,
  "engin@@": 30498,
  "engine": 1647,
  "engine@@": 31525,
  "engined": 25569,
  "engineer": 3898,
  "engineered": 16246,
  "engineering": 2314,
  "engineers": 6251,
  "engines": 4111,
  "england": 835,
  "engli@@": 28139,
  "english": 621,
  "englishman": 24670,
  "engra@@": 13494,
  "engraved": 18836,
  "ength": 31717,
  "engul@@": 29130,
  "engulfed": 26684,
  "enh@@": 29027,
  "enham": 22553,
  "enhan@@": 22063,
  "enhance": 12366,
  "enhanced": 9762,
  "enhancement": 26851,
  "enhancing": 24231,
  "eni": 13719,
  "eni@@": 10566,
  "enia": 26059,
  "enig@@": 17270,
  "ening": 4828,
  "enjo@@": 29620,
  "enjoy": 2895,
  "enjoy@@": 30692,
  "enjoyable": 24431,
  "enjoyed": 4109,
  "enjoying": 6754,
  "enjoyment": 22022,
  "enjoys": 16683,
  "enko": 15006,
  "enlar@@": 27534,
  "enlarged": 13139,
  "enligh@@": 27868,
  "enlighten@@": 31960,
  "enlightenment": 18648,
  "enlisted": 9466,
  "enly": 24248,
  "enna": 17068,
  "enne": 8007,
  "enni@@": 23088,
  "ennial": 16595,
  "eno": 14875,
  "eno@@": 7929,
  "enor@@": 22540,
  "enormous": 6827,
  "enos": 27808,
  "enough": 326,
  "enqu@@": 21154,
  "enraged": 19651,
  "enrich@@": 17125,
  "enrique": 20263,
  "enroll@@": 29734,
  "enrolled": 7995,
  "enrollment": 10697,
  "ens": 2066,
  "ens@@": 8925,
  "ense": 12977,
  "ensem@@": 28839,
  "ensemble": 8517,
  "ensembles": 26288,
  "ensen": 24682,
  "enses": 22567,
  "ensign": 19557,
  "ensis": 10146,
  "ensive": 31505,
  "ensla@@": 28970,
  "enslaved": 24653,
  "enson": 23768,
  "ensu@@": 28325,
  "ensued": 20592,
  "ensuing": 14486,
  "ensure": 4793,
  "ensured": 18038,
  "ensures": 25738,
  "ensuring": 14326,
  "ent": 1558,
  "ent@@": 1602,
  "enta": 18145,
  "enta@@": 23488,
  "ental": 9661,
  "entally": 11207,
  "entals": 21441,
  "entary": 11090,
  "entation": 19927,
  "entations": 21072,
  "ente": 8150,
  "ented": 5291,
  "enter": 2668,
  "enter@@": 16799,
  "entered": 1446,
  "entering": 4482,
  "enterpri@@": 29265,
  "enterprise": 6325,
  "enterprises": 10369,
  "enters": 6324,
  "entertain": 17822,
  "entertain@@": 27514,
  "entertained": 21984,
  "entertainer": 26350,
  "entertaining": 13802,
  "entertainment": 2865,
  "entes": 23733,
  "enth": 29640,
  "enthusi@@": 27980,
  "enthusiasm": 11305,
  "enthusiastic": 14270,
  "enthusiastically": 26947,
  "enthusiasts": 24080,
  "enti@@": 4869,
  "entia": 18797,
  "ential": 8284,
  "entially": 19728,
  "entials": 24116,
  "entiary": 22744,
  "entic": 30936,
  "entin": 29152,
  "entine": 18707,
  "enting": 6564,
  "ention": 29750,
  "entions": 27666,
  "entious": 20293,
  "entire": 1085,
  "entirely": 2930,
  "entirety": 18063,
  "entit@@": 27733,
  "entities": 12330,
  "entitled": 3708,
  "entity": 9164,
  "entive": 16286,
  "ently": 4963,
  "ento": 12312,
  "entom@@": 21556,
  "enton": 15977,
  "entoura@@": 31834,
  "entourage": 27279,
  "entr@@": 16351,
  "entran@@": 24494,
  "entrance": 2734,
  "entrances": 20114,
  "entre@@": 28108,
  "entrepren@@": 19493,
  "entrepreneur": 11760,
  "entrepreneurs": 21047,
  "entries": 11442,
  "entro@@": 20629,
  "entrusted": 18759,
  "entry": 3277,
  "ents": 2948,
  "enty": 28333,
  "enty@@": 30293,
  "enu@@": 15449,
  "envel@@": 14659,
  "envelope": 9553,
  "envi@@": 17248,
  "envir@@": 28728,
  "environ@@": 18001,
  "environment": 2883,
  "environmental": 3730,
  "environments": 10883,
  "envisioned": 19677,
  "envoy": 22407,
  "envy": 15820,
  "eny": 26973,
  "enz": 20355,
  "enz@@": 13476,
  "enza": 13830,
  "enzie": 31772,
  "enzo": 24401,
  "enzy@@": 28128,
  "enzyme": 9841,
  "enzymes": 18983,
  "eo": 9065,
  "eo@@": 8844,
  "eon": 13417,
  "eous": 10555,
  "eously": 25024,
  "ep": 3771,
  "ep@@": 2075,
  "epa": 18425,
  "eped": 16779,
  "eper": 15130,
  "eph@@": 11488,
  "ephal@@": 26170,
  "ephan@@": 30443,
  "ephant": 33428,
  "ephone": 31176,
  "epi@@": 9853,
  "epic": 8723,
  "epid@@": 19148,
  "epidemic": 16866,
  "epil@@": 31179,
  "epilep@@": 24500,
  "eping": 18051,
  "epis@@": 28974,
  "episcop@@": 28094,
  "episcopal": 9958,
  "episo@@": 28627,
  "episode": 1350,
  "episodes": 3413,
  "epist@@": 18245,
  "epit@@": 19797,
  "epithet": 25795,
  "epo@@": 14985,
  "eponymous": 18227,
  "epr@@": 29649,
  "eps": 8948,
  "epy": 29562,
  "equ@@": 4945,
  "equal": 3733,
  "equality": 10730,
  "equally": 7185,
  "equals": 17806,
  "equation": 8193,
  "equations": 12338,
  "equest@@": 29853,
  "equestrian": 24594,
  "equi@@": 11964,
  "equili@@": 29658,
  "equilibrium": 16192,
  "equipment": 2450,
  "equipped": 5306,
  "equity": 11047,
  "equival@@": 25659,
  "equivalent": 5250,
  "er": 320,
  "er@@": 478,
  "era": 1471,
  "erable": 12167,
  "erad@@": 18703,
  "eral": 26899,
  "erals": 17481,
  "eras": 18792,
  "eras@@": 16524,
  "erase": 17748,
  "erased": 20129,
  "erated": 18045,
  "eration": 19625,
  "ere": 4000,
  "ere@@": 20793,
  "erect": 16074,
  "erected": 6985,
  "erection": 13593,
  "ered": 3004,
  "eres": 18700,
  "erfield": 22216,
  "erg@@": 12256,
  "ergy": 23589,
  "eri": 8120,
  "eri@@": 8480,
  "eria": 14965,
  "erial": 17288,
  "eric": 2686,
  "eric@@": 26019,
  "erica": 15769,
  "erich": 21045,
  "erie": 7410,
  "eries": 8594,
  "erik": 10848,
  "erin": 9059,
  "erina": 21546,
  "ering": 3293,
  "erings": 28597,
  "erit@@": 27033,
  "erly": 15281,
  "erm": 16316,
  "erman": 14839,
  "erment": 26258,
  "ermo": 27762,
  "ern": 16485,
  "ern@@": 11483,
  "ernal": 28329,
  "erne@@": 26135,
  "ernest": 9536,
  "ernie": 14721,
  "ernity": 28180,
  "ernst": 13461,
  "ero": 6225,
  "ero@@": 6547,
  "eroded": 27088,
  "eron": 27758,
  "eros": 15424,
  "erosion": 16175,
  "erotic": 13428,
  "erous": 29163,
  "eroy": 28977,
  "erra": 27460,
  "errand": 23317,
  "erratic": 24131,
  "erron@@": 24168,
  "error": 6921,
  "errors": 11498,
  "ers": 437,
  "ership": 15797,
  "erson": 12900,
  "ert": 11085,
  "erton": 20008,
  "erty": 20767,
  "erun@@": 29172,
  "erup@@": 15906,
  "erupted": 12674,
  "eruption": 19837,
  "ery": 2819,
  "ery@@": 18168,
  "es": 395,
  "es@@": 987,
  "esa": 13615,
  "esan": 27487,
  "esc@@": 19713,
  "esca": 28925,
  "escal@@": 10081,
  "escap@@": 21050,
  "escape": 1999,
  "escaped": 4444,
  "escapes": 12704,
  "escaping": 12096,
  "escence": 17276,
  "escent": 27584,
  "esch@@": 26740,
  "esco": 27580,
  "escor@@": 29694,
  "escort": 6806,
  "escorted": 12729,
  "escorting": 24807,
  "escorts": 26250,
  "escu": 15692,
  "esday": 33491,
  "ese": 3543,
  "eses": 17636,
  "esh": 7506,
  "esh@@": 14845,
  "esi": 17351,
  "esia": 27723,
  "esian": 14073,
  "esis": 16454,
  "esley": 26077,
  "esman": 28989,
  "esome": 13216,
  "eson": 15223,
  "esp@@": 7538,
  "espa@@": 22889,
  "especially": 1083,
  "esper@@": 20157,
  "esperson": 30097,
  "espi@@": 31002,
  "espionage": 21813,
  "espn": 12625,
  "esque": 24802,
  "ess": 2985,
  "ess@@": 5819,
  "essa": 22987,
  "essay": 10314,
  "essays": 11695,
  "esse": 21142,
  "essed": 21722,
  "essen": 18808,
  "essence": 10646,
  "essential": 6042,
  "essentially": 6996,
  "esses": 8636,
  "essex": 9510,
  "essi@@": 9096,
  "essie": 28815,
  "essing": 18819,
  "ession": 27875,
  "essions": 28283,
  "essive": 28805,
  "essively": 20620,
  "essly": 23836,
  "essness": 28112,
  "essor": 28186,
  "essors": 30679,
  "est": 2167,
  "est@@": 2134,
  "esta": 14548,
  "estab@@": 29361,
  "establi@@": 31526,
  "establish": 4251,
  "established": 779,
  "establishes": 26520,
  "establishing": 7038,
  "establishment": 4130,
  "establishments": 19972,
  "estan": 27140,
  "estate": 2316,
  "estates": 8853,
  "este": 17427,
  "este@@": 17443,
  "ested": 9804,
  "esteem": 18943,
  "ester": 8804,
  "ester@@": 13808,
  "esters": 23322,
  "estershire": 38811,
  "esthe@@": 28709,
  "esther": 15148,
  "esthetic": 28039,
  "esti@@": 17438,
  "estim@@": 15519,
  "estimate": 9761,
  "estimated": 3169,
  "estimates": 10156,
  "esting": 18765,
  "estion": 22480,
  "estly": 28483,
  "eston": 19182,
  "estone": 25802,
  "estonia": 14862,
  "estonian": 16534,
  "estranged": 27199,
  "estro": 28745,
  "ests": 9648,
  "estu@@": 20130,
  "estuary": 21039,
  "esty": 27834,
  "esville": 16663,
  "esy": 13986,
  "esz@@": 22448,
  "et": 995,
  "et@@": 1141,
  "eta": 5758,
  "etal": 18031,
  "etan": 29229,
  "etary": 26434,
  "etc": 3734,
  "etched": 21541,
  "ete": 9630,
  "eted": 7945,
  "eter": 7027,
  "eter@@": 13916,
  "eternal": 9878,
  "eternity": 11349,
  "eters": 13447,
  "etes": 26653,
  "eth": 10672,
  "eth@@": 5140,
  "ethan": 4312,
  "ethanol": 25492,
  "ethel": 20507,
  "ether": 26880,
  "ether@@": 17010,
  "ethical": 12232,
  "ethics": 9838,
  "ethiop@@": 29334,
  "ethiopia": 13408,
  "ethiopian": 18371,
  "ethnic": 4932,
  "ethnic@@": 29078,
  "ethnicity": 21968,
  "ethno@@": 15431,
  "eti": 16906,
  "eti@@": 12346,
  "etic": 12241,
  "etically": 21776,
  "etics": 15442,
  "eties": 29326,
  "eting": 10360,
  "etings": 32596,
  "etion": 25046,
  "etly": 27753,
  "eto": 19520,
  "eton": 8540,
  "etor@@": 28658,
  "etown": 22418,
  "etric": 17882,
  "etrical": 28537,
  "etry": 18149,
  "ets": 2534,
  "ett": 4019,
  "ett@@": 24048,
  "etta": 6599,
  "ette": 3751,
  "ettes": 15600,
  "etti": 10023,
  "etto": 18997,
  "etus": 26828,
  "ety": 10610,
  "ety@@": 14116,
  "etz": 20607,
  "etz@@": 20390,
  "eu": 6445,
  "eu@@": 2184,
  "eucli@@": 22982,
  "eugen@@": 17210,
  "eugene": 9716,
  "eul@@": 25245,
  "eum": 26244,
  "eun": 16970,
  "eun@@": 16944,
  "euph@@": 14910,
  "eupon": 25694,
  "eur": 9559,
  "eur@@": 10639,
  "eureka": 22951,
  "euro": 10887,
  "euro@@": 7922,
  "europa": 16801,
  "europe": 1267,
  "europe@@": 29809,
  "european": 1073,
  "europeans": 14268,
  "euros": 17080,
  "eurovision": 13956,
  "eurs": 27684,
  "eury@@": 22910,
  "eus": 9535,
  "eux": 15262,
  "ev": 5924,
  "ev@@": 1457,
  "eva": 4962,
  "eva@@": 20719,
  "evacu@@": 27607,
  "evacuate": 18035,
  "evacuated": 13657,
  "evacuation": 13828,
  "eval": 14749,
  "evalu@@": 15705,
  "evaluate": 17054,
  "evaluated": 18349,
  "evaluation": 9777,
  "evan": 6546,
  "evangel@@": 10589,
  "evangelical": 13287,
  "evans": 6541,
  "evapor@@": 15636,
  "eve": 3649,
  "eved": 19751,
  "evel@@": 27697,
  "evelyn": 13078,
  "even": 140,
  "even@@": 27793,
  "evening": 1659,
  "evenings": 17007,
  "evenly": 17873,
  "event": 1129,
  "event@@": 19089,
  "events": 1213,
  "eventual": 9751,
  "eventually": 1016,
  "ever": 286,
  "ever@@": 6375,
  "everest": 25565,
  "everett": 16805,
  "evergreen": 20541,
  "everton": 21155,
  "every": 273,
  "every@@": 26067,
  "everybody": 1566,
  "everyday": 8527,
  "everyone": 692,
  "everything": 351,
  "everywhere": 3822,
  "eves": 17846,
  "evi@@": 13404,
  "evic@@": 29209,
  "evich": 17209,
  "evicted": 25723,
  "evid@@": 28239,
  "evidence": 1417,
  "evidenced": 24598,
  "evident": 10326,
  "evidently": 14750,
  "evie": 23671,
  "evie@@": 28667,
  "evieve": 37111,
  "evil": 2420,
  "eville": 10628,
  "eving": 22599,
  "ević": 16009,
  "evo": 13903,
  "evo@@": 25521,
  "evol@@": 19522,
  "evolent": 20936,
  "evolution": 6379,
  "evolutionary": 14070,
  "evolve": 20810,
  "evolved": 7288,
  "evolving": 22523,
  "evsky": 23504,
  "ew": 6401,
  "ew@@": 2445,
  "ewa": 21217,
  "ewall": 25435,
  "ewan": 26810,
  "ewater": 22017,
  "eway": 12566,
  "eways": 21089,
  "ewell": 21262,
  "ewicz": 21638,
  "ewide": 31342,
  "ewing": 19807,
  "ewise": 29500,
  "ewln@@": 43621,
  "ewol@@": 30517,
  "ewood": 12717,
  "ewor@@": 13836,
  "ework": 25402,
  "eworks": 27978,
  "eworthy": 30107,
  "ews": 10971,
  "ewski": 22217,
  "ex": 2226,
  "ex@@": 1582,
  "exacer@@": 26476,
  "exact": 4778,
  "exactly": 930,
  "exag@@": 27447,
  "exagger@@": 17096,
  "exaggerated": 17199,
  "exam": 8933,
  "exam@@": 27822,
  "examination": 7123,
  "examinations": 16731,
  "examine": 9859,
  "examined": 8051,
  "examiner": 20941,
  "examines": 24760,
  "examining": 13057,
  "example": 1046,
  "examples": 4261,
  "exams": 12554,
  "exasper@@": 27501,
  "exasperated": 26399,
  "exc@@": 8466,
  "excav@@": 27836,
  "excavated": 17346,
  "excavation": 19223,
  "excavations": 16238,
  "exceed": 15108,
  "exceeded": 16022,
  "exceeding": 20703,
  "exceeds": 27400,
  "excell@@": 28869,
  "excelled": 25536,
  "excellence": 9638,
  "excellency": 21810,
  "excellent": 3893,
  "excep@@": 28410,
  "except": 1372,
  "exception": 5435,
  "exceptional": 12204,
  "exceptionally": 18237,
  "exceptions": 11914,
  "excer@@": 22335,
  "excess": 10055,
  "excessive": 11882,
  "exchange": 2446,
  "exchanged": 10077,
  "exchanges": 18140,
  "exchanging": 27006,
  "excit@@": 28463,
  "excited": 4215,
  "excitedly": 25787,
  "excitement": 6689,
  "exciting": 6710,
  "exclaimed": 10960,
  "exclu@@": 25420,
  "exclude": 26186,
  "excluded": 13396,
  "excluding": 16349,
  "exclusion": 20680,
  "exclusive": 6719,
  "exclusively": 7337,
  "excu@@": 28613,
  "excur@@": 20266,
  "excuse": 1365,
  "excused": 25113,
  "excuses": 14725,
  "exec@@": 29812,
  "execu@@": 22250,
  "execute": 14207,
  "executed": 5699,
  "executi@@": 27600,
  "executing": 26344,
  "execution": 7133,
  "executions": 24855,
  "executive": 1939,
  "executives": 13465,
  "exemp@@": 24779,
  "exempl@@": 26260,
  "exempli@@": 23190,
  "exempt": 21267,
  "exemption": 23372,
  "exer@@": 13055,
  "exerc@@": 27604,
  "exercise": 5579,
  "exercised": 20162,
  "exercises": 11062,
  "exeter": 15450,
  "exhaled": 15967,
  "exhau@@": 27681,
  "exhaust": 16083,
  "exhausted": 7033,
  "exhausting": 27343,
  "exhaustion": 15767,
  "exhib@@": 29749,
  "exhibit": 8198,
  "exhibited": 8672,
  "exhibiting": 26725,
  "exhibition": 4146,
  "exhibitions": 9532,
  "exhibits": 11811,
  "exile": 8183,
  "exiled": 15356,
  "exist": 3068,
  "exist@@": 26439,
  "existed": 4629,
  "existence": 3342,
  "existent": 20148,
  "existing": 3470,
  "exists": 5541,
  "exit": 4850,
  "exited": 15919,
  "exiting": 24747,
  "exits": 16814,
  "exo@@": 23211,
  "exodus": 22219,
  "exor@@": 17542,
  "exotic": 11859,
  "exp@@": 9064,
  "expan@@": 12030,
  "expand": 7218,
  "expanded": 3388,
  "expanding": 8926,
  "expanse": 24647,
  "expansion": 4056,
  "expatri@@": 26867,
  "expe@@": 19913,
  "expec@@": 16374,
  "expect": 2629,
  "expectation": 19047,
  "expectations": 10256,
  "expected": 1761,
  "expecting": 4944,
  "expects": 21742,
  "expediti@@": 30126,
  "expedition": 4927,
  "expeditionary": 18732,
  "expeditions": 17245,
  "expelled": 9621,
  "expend@@": 20776,
  "expenditure": 24650,
  "expense": 10139,
  "expenses": 10543,
  "expensive": 4287,
  "exper@@": 28172,
  "experi@@": 28926,
  "experience": 1527,
  "experienced": 3933,
  "experiences": 5584,
  "experiencing": 12918,
  "experim@@": 26547,
  "experiment": 6144,
  "experimental": 6032,
  "experimentation": 24339,
  "experimented": 22502,
  "experimenting": 23684,
  "experiments": 7110,
  "expert": 5189,
  "expertise": 11290,
  "experts": 8073,
  "expired": 14049,
  "expl@@": 28901,
  "expla@@": 29396,
  "explain": 1928,
  "explained": 2910,
  "explaining": 9014,
  "explains": 6252,
  "explan@@": 28706,
  "explanation": 5644,
  "explanations": 18724,
  "explic@@": 25401,
  "explicit": 14635,
  "explicitly": 13075,
  "explo@@": 21602,
  "explode": 11838,
  "exploded": 8577,
  "explodes": 26535,
  "exploding": 20394,
  "exploit": 18240,
  "exploitation": 16243,
  "exploited": 19886,
  "exploits": 22643,
  "explor@@": 25025,
  "exploration": 9412,
  "explore": 8143,
  "explored": 10397,
  "explorer": 11658,
  "explorers": 21852,
  "explores": 18158,
  "exploring": 11465,
  "explosion": 6156,
  "explosions": 18799,
  "explosive": 10824,
  "explosives": 12907,
  "expo": 19895,
  "expo@@": 21082,
  "expon@@": 14850,
  "export": 9707,
  "exported": 18266,
  "exports": 16060,
  "expose": 13181,
  "exposed": 4763,
  "exposing": 15070,
  "exposition": 15956,
  "exposure": 6906,
  "expres@@": 18082,
  "express": 3668,
  "expressed": 4325,
  "expresses": 19053,
  "expressing": 14730,
  "expression": 2055,
  "expression@@": 26307,
  "expressions": 11804,
  "expressive": 25760,
  "expressway": 13951,
  "expulsion": 20673,
  "exqu@@": 28931,
  "exquisite": 18231,
  "ext": 22132,
  "ext@@": 19788,
  "extant": 15559,
  "exten@@": 28249,
  "extend": 7366,
  "extended": 2360,
  "extending": 8380,
  "extends": 9242,
  "extension": 4583,
  "extensions": 16750,
  "extensive": 3851,
  "extensively": 8016,
  "extent": 5962,
  "exter@@": 21437,
  "exterior": 8920,
  "external": 6024,
  "extinc@@": 29927,
  "extinct": 9980,
  "extinction": 15676,
  "extingu@@": 22322,
  "extor@@": 23458,
  "extr@@": 15196,
  "extra": 2529,
  "extra@@": 13039,
  "extrac@@": 12736,
  "extract": 15267,
  "extracted": 17331,
  "extraction": 15430,
  "extraordinary": 7746,
  "extrater@@": 26400,
  "extravag@@": 19193,
  "extre@@": 13618,
  "extrem@@": 27456,
  "extreme": 5013,
  "extremely": 3552,
  "exu@@": 21639,
  "ey": 1206,
  "ey@@": 4407,
  "eyball": 31264,
  "eye": 1182,
  "eye@@": 11036,
  "eyebrow": 8708,
  "eyebrows": 7246,
  "eyed": 5737,
  "eyeing": 19662,
  "eyel@@": 27567,
  "eyelashes": 25347,
  "eyelids": 16565,
  "eyes": 202,
  "eyew@@": 29339,
  "eyewit@@": 21872,
  "eys": 16935,
  "ez": 6036,
  "ez@@": 9354,
  "eze": 23064,
  "eze@@": 26877,
  "ezio": 24423,
  "ezra": 16273,
  "f": 459,
  "f1": 19681,
  "f@@": 490,
  "fa": 3291,
  "fa@@": 1560,
  "faa": 22497,
  "fab@@": 6218,
  "fabian": 27265,
  "fabric": 7461,
  "fabric@@": 20239,
  "fabricated": 22451,
  "fabulous": 13099,
  "fac@@": 6746,
  "facade": 11469,
  "face": 249,
  "face@@": 26961,
  "facebook": 8779,
  "faced": 2659,
  "faces": 3519,
  "facial": 11507,
  "facilit@@": 17577,
  "facilitate": 11940,
  "facilitated": 22691,
  "facilities": 3022,
  "facility": 3095,
  "facing": 3806,
  "fact": 774,
  "fact@@": 13343,
  "faction": 9855,
  "factions": 14227,
  "facto": 15373,
  "factor": 4525,
  "factories": 11033,
  "factors": 5171,
  "factory": 3215,
  "facts": 6223,
  "facul@@": 29362,
  "faculties": 21801,
  "faculty": 3897,
  "fad@@": 21855,
  "fade": 12126,
  "faded": 7178,
  "fading": 13711,
  "fae": 16751,
  "fag@@": 14160,
  "fai@@": 20811,
  "fail": 6053,
  "fail@@": 28188,
  "failed": 1749,
  "failing": 7234,
  "fails": 11484,
  "failure": 3674,
  "failures": 16472,
  "faint": 6802,
  "fainted": 25535,
  "faintly": 20020,
  "fair": 1882,
  "fair@@": 5957,
  "fairfax": 20678,
  "fairfield": 23522,
  "fairies": 19485,
  "fairly": 5688,
  "fairness": 25396,
  "fairs": 24492,
  "fairy": 7265,
  "faith": 2887,
  "faith@@": 23188,
  "faithful": 9685,
  "fake": 4872,
  "faked": 25294,
  "faking": 27066,
  "fal@@": 3952,
  "falcon": 12768,
  "falcons": 18148,
  "falk@@": 23674,
  "fall": 1025,
  "fall@@": 13367,
  "fallen": 3648,
  "falling": 2781,
  "fallon": 16615,
  "fallout": 26010,
  "falls": 2555,
  "false": 4736,
  "falsely": 25670,
  "fam@@": 8019,
  "fame": 3919,
  "famed": 16907,
  "famili@@": 27738,
  "familiar": 3250,
  "familiarity": 25745,
  "families": 1473,
  "family": 219,
  "famine": 16581,
  "famous": 1595,
  "famously": 19366,
  "fan": 3368,
  "fan@@": 5795,
[...]
